{
  "version": "1.0",
  "truncation": null,
  "padding": null,
  "added_tokens": [
    {
      "id": 0,
      "content": "<|endoftext|>",
      "single_word": false,
      "lstrip": false,
      "rstrip": false,
      "normalized": false,
      "special": true
    },
    {
      "id": 1,
      "content": "<|pad|>",
      "single_word": false,
      "lstrip": false,
      "rstrip": false,
      "normalized": false,
      "special": true
    },
    {
      "id": 2,
      "content": "<|im_start|>",
      "single_word": false,
      "lstrip": false,
      "rstrip": false,
      "normalized": false,
      "special": true
    },
    {
      "id": 3,
      "content": "<|im_end|>",
      "single_word": false,
      "lstrip": false,
      "rstrip": false,
      "normalized": false,
      "special": true
    },
    {
      "id": 4,
      "content": "<|fim_prefix|>",
      "single_word": false,
      "lstrip": false,
      "rstrip": false,
      "normalized": false,
      "special": true
    },
    {
      "id": 5,
      "content": "<|fim_middle|>",
      "single_word": false,
      "lstrip": false,
      "rstrip": false,
      "normalized": false,
      "special": true
    },
    {
      "id": 6,
      "content": "<|fim_suffix|>",
      "single_word": false,
      "lstrip": false,
      "rstrip": false,
      "normalized": false,
      "special": true
    },
    {
      "id": 7,
      "content": "<|fim_pad|>",
      "single_word": false,
      "lstrip": false,
      "rstrip": false,
      "normalized": false,
      "special": true
    },
    {
      "id": 8,
      "content": "<|repo_name|>",
      "single_word": false,
      "lstrip": false,
      "rstrip": false,
      "normalized": false,
      "special": true
    },
    {
      "id": 9,
      "content": "<|file_sep|>",
      "single_word": false,
      "lstrip": false,
      "rstrip": false,
      "normalized": false,
      "special": true
    },
    {
      "id": 10,
      "content": "<tool_call>",
      "single_word": false,
      "lstrip": false,
      "rstrip": false,
      "normalized": false,
      "special": true
    },
    {
      "id": 11,
      "content": "</tool_call>",
      "single_word": false,
      "lstrip": false,
      "rstrip": false,
      "normalized": false,
      "special": true
    },
    {
      "id": 12,
      "content": "<tool_response>",
      "single_word": false,
      "lstrip": false,
      "rstrip": false,
      "normalized": false,
      "special": true
    },
    {
      "id": 13,
      "content": "</tool_response>",
      "single_word": false,
      "lstrip": false,
      "rstrip": false,
      "normalized": false,
      "special": true
    },
    {
      "id": 14,
      "content": "<think>",
      "single_word": false,
      "lstrip": false,
      "rstrip": false,
      "normalized": false,
      "special": true
    },
    {
      "id": 15,
      "content": "</think>",
      "single_word": false,
      "lstrip": false,
      "rstrip": false,
      "normalized": false,
      "special": true
    },
    {
      "id": 16,
      "content": "<|reserved_special_token_0|>",
      "single_word": false,
      "lstrip": false,
      "rstrip": false,
      "normalized": false,
      "special": true
    },
    {
      "id": 17,
      "content": "<|reserved_special_token_1|>",
      "single_word": false,
      "lstrip": false,
      "rstrip": false,
      "normalized": false,
      "special": true
    },
    {
      "id": 18,
      "content": "<|reserved_special_token_2|>",
      "single_word": false,
      "lstrip": false,
      "rstrip": false,
      "normalized": false,
      "special": true
    },
    {
      "id": 19,
      "content": "<|reserved_special_token_3|>",
      "single_word": false,
      "lstrip": false,
      "rstrip": false,
      "normalized": false,
      "special": true
    },
    {
      "id": 20,
      "content": "<|reserved_special_token_4|>",
      "single_word": false,
      "lstrip": false,
      "rstrip": false,
      "normalized": false,
      "special": true
    },
    {
      "id": 21,
      "content": "<|reserved_special_token_5|>",
      "single_word": false,
      "lstrip": false,
      "rstrip": false,
      "normalized": false,
      "special": true
    },
    {
      "id": 22,
      "content": "<|reserved_special_token_6|>",
      "single_word": false,
      "lstrip": false,
      "rstrip": false,
      "normalized": false,
      "special": true
    },
    {
      "id": 23,
      "content": "<|reserved_special_token_7|>",
      "single_word": false,
      "lstrip": false,
      "rstrip": false,
      "normalized": false,
      "special": true
    },
    {
      "id": 24,
      "content": "<|reserved_special_token_8|>",
      "single_word": false,
      "lstrip": false,
      "rstrip": false,
      "normalized": false,
      "special": true
    },
    {
      "id": 25,
      "content": "<|reserved_special_token_9|>",
      "single_word": false,
      "lstrip": false,
      "rstrip": false,
      "normalized": false,
      "special": true
    },
    {
      "id": 26,
      "content": "<|reserved_special_token_10|>",
      "single_word": false,
      "lstrip": false,
      "rstrip": false,
      "normalized": false,
      "special": true
    },
    {
      "id": 27,
      "content": "<|reserved_special_token_11|>",
      "single_word": false,
      "lstrip": false,
      "rstrip": false,
      "normalized": false,
      "special": true
    },
    {
      "id": 28,
      "content": "<|reserved_special_token_12|>",
      "single_word": false,
      "lstrip": false,
      "rstrip": false,
      "normalized": false,
      "special": true
    },
    {
      "id": 29,
      "content": "<|reserved_special_token_13|>",
      "single_word": false,
      "lstrip": false,
      "rstrip": false,
      "normalized": false,
      "special": true
    },
    {
      "id": 30,
      "content": "<|reserved_special_token_14|>",
      "single_word": false,
      "lstrip": false,
      "rstrip": false,
      "normalized": false,
      "special": true
    },
    {
      "id": 31,
      "content": "<|reserved_special_token_15|>",
      "single_word": false,
      "lstrip": false,
      "rstrip": false,
      "normalized": false,
      "special": true
    },
    {
      "id": 32,
      "content": "<|reserved_special_token_16|>",
      "single_word": false,
      "lstrip": false,
      "rstrip": false,
      "normalized": false,
      "special": true
    },
    {
      "id": 33,
      "content": "<|reserved_special_token_17|>",
      "single_word": false,
      "lstrip": false,
      "rstrip": false,
      "normalized": false,
      "special": true
    },
    {
      "id": 34,
      "content": "<|reserved_special_token_18|>",
      "single_word": false,
      "lstrip": false,
      "rstrip": false,
      "normalized": false,
      "special": true
    },
    {
      "id": 35,
      "content": "<|reserved_special_token_19|>",
      "single_word": false,
      "lstrip": false,
      "rstrip": false,
      "normalized": false,
      "special": true
    },
    {
      "id": 36,
      "content": "<|reserved_special_token_20|>",
      "single_word": false,
      "lstrip": false,
      "rstrip": false,
      "normalized": false,
      "special": true
    },
    {
      "id": 37,
      "content": "<|reserved_special_token_21|>",
      "single_word": false,
      "lstrip": false,
      "rstrip": false,
      "normalized": false,
      "special": true
    },
    {
      "id": 38,
      "content": "<|reserved_special_token_22|>",
      "single_word": false,
      "lstrip": false,
      "rstrip": false,
      "normalized": false,
      "special": true
    },
    {
      "id": 39,
      "content": "<|reserved_special_token_23|>",
      "single_word": false,
      "lstrip": false,
      "rstrip": false,
      "normalized": false,
      "special": true
    },
    {
      "id": 40,
      "content": "<|reserved_special_token_24|>",
      "single_word": false,
      "lstrip": false,
      "rstrip": false,
      "normalized": false,
      "special": true
    },
    {
      "id": 41,
      "content": "<|reserved_special_token_25|>",
      "single_word": false,
      "lstrip": false,
      "rstrip": false,
      "normalized": false,
      "special": true
    },
    {
      "id": 42,
      "content": "<|reserved_special_token_26|>",
      "single_word": false,
      "lstrip": false,
      "rstrip": false,
      "normalized": false,
      "special": true
    },
    {
      "id": 43,
      "content": "<|reserved_special_token_27|>",
      "single_word": false,
      "lstrip": false,
      "rstrip": false,
      "normalized": false,
      "special": true
    },
    {
      "id": 44,
      "content": "<|reserved_special_token_28|>",
      "single_word": false,
      "lstrip": false,
      "rstrip": false,
      "normalized": false,
      "special": true
    },
    {
      "id": 45,
      "content": "<|reserved_special_token_29|>",
      "single_word": false,
      "lstrip": false,
      "rstrip": false,
      "normalized": false,
      "special": true
    },
    {
      "id": 46,
      "content": "<|reserved_special_token_30|>",
      "single_word": false,
      "lstrip": false,
      "rstrip": false,
      "normalized": false,
      "special": true
    },
    {
      "id": 47,
      "content": "<|reserved_special_token_31|>",
      "single_word": false,
      "lstrip": false,
      "rstrip": false,
      "normalized": false,
      "special": true
    },
    {
      "id": 48,
      "content": "<|reserved_special_token_32|>",
      "single_word": false,
      "lstrip": false,
      "rstrip": false,
      "normalized": false,
      "special": true
    },
    {
      "id": 49,
      "content": "<|reserved_special_token_33|>",
      "single_word": false,
      "lstrip": false,
      "rstrip": false,
      "normalized": false,
      "special": true
    },
    {
      "id": 50,
      "content": "<|reserved_special_token_34|>",
      "single_word": false,
      "lstrip": false,
      "rstrip": false,
      "normalized": false,
      "special": true
    },
    {
      "id": 51,
      "content": "<|reserved_special_token_35|>",
      "single_word": false,
      "lstrip": false,
      "rstrip": false,
      "normalized": false,
      "special": true
    },
    {
      "id": 52,
      "content": "<|reserved_special_token_36|>",
      "single_word": false,
      "lstrip": false,
      "rstrip": false,
      "normalized": false,
      "special": true
    },
    {
      "id": 53,
      "content": "<|reserved_special_token_37|>",
      "single_word": false,
      "lstrip": false,
      "rstrip": false,
      "normalized": false,
      "special": true
    },
    {
      "id": 54,
      "content": "<|reserved_special_token_38|>",
      "single_word": false,
      "lstrip": false,
      "rstrip": false,
      "normalized": false,
      "special": true
    },
    {
      "id": 55,
      "content": "<|reserved_special_token_39|>",
      "single_word": false,
      "lstrip": false,
      "rstrip": false,
      "normalized": false,
      "special": true
    },
    {
      "id": 56,
      "content": "<|reserved_special_token_40|>",
      "single_word": false,
      "lstrip": false,
      "rstrip": false,
      "normalized": false,
      "special": true
    },
    {
      "id": 57,
      "content": "<|reserved_special_token_41|>",
      "single_word": false,
      "lstrip": false,
      "rstrip": false,
      "normalized": false,
      "special": true
    },
    {
      "id": 58,
      "content": "<|reserved_special_token_42|>",
      "single_word": false,
      "lstrip": false,
      "rstrip": false,
      "normalized": false,
      "special": true
    },
    {
      "id": 59,
      "content": "<|reserved_special_token_43|>",
      "single_word": false,
      "lstrip": false,
      "rstrip": false,
      "normalized": false,
      "special": true
    },
    {
      "id": 60,
      "content": "<|reserved_special_token_44|>",
      "single_word": false,
      "lstrip": false,
      "rstrip": false,
      "normalized": false,
      "special": true
    },
    {
      "id": 61,
      "content": "<|reserved_special_token_45|>",
      "single_word": false,
      "lstrip": false,
      "rstrip": false,
      "normalized": false,
      "special": true
    },
    {
      "id": 62,
      "content": "<|reserved_special_token_46|>",
      "single_word": false,
      "lstrip": false,
      "rstrip": false,
      "normalized": false,
      "special": true
    },
    {
      "id": 63,
      "content": "<|reserved_special_token_47|>",
      "single_word": false,
      "lstrip": false,
      "rstrip": false,
      "normalized": false,
      "special": true
    },
    {
      "id": 64,
      "content": "<|reserved_special_token_48|>",
      "single_word": false,
      "lstrip": false,
      "rstrip": false,
      "normalized": false,
      "special": true
    },
    {
      "id": 65,
      "content": "<|reserved_special_token_49|>",
      "single_word": false,
      "lstrip": false,
      "rstrip": false,
      "normalized": false,
      "special": true
    },
    {
      "id": 66,
      "content": "<|reserved_special_token_50|>",
      "single_word": false,
      "lstrip": false,
      "rstrip": false,
      "normalized": false,
      "special": true
    },
    {
      "id": 67,
      "content": "<|reserved_special_token_51|>",
      "single_word": false,
      "lstrip": false,
      "rstrip": false,
      "normalized": false,
      "special": true
    },
    {
      "id": 68,
      "content": "<|reserved_special_token_52|>",
      "single_word": false,
      "lstrip": false,
      "rstrip": false,
      "normalized": false,
      "special": true
    },
    {
      "id": 69,
      "content": "<|reserved_special_token_53|>",
      "single_word": false,
      "lstrip": false,
      "rstrip": false,
      "normalized": false,
      "special": true
    },
    {
      "id": 70,
      "content": "<|reserved_special_token_54|>",
      "single_word": false,
      "lstrip": false,
      "rstrip": false,
      "normalized": false,
      "special": true
    },
    {
      "id": 71,
      "content": "<|reserved_special_token_55|>",
      "single_word": false,
      "lstrip": false,
      "rstrip": false,
      "normalized": false,
      "special": true
    },
    {
      "id": 72,
      "content": "<|reserved_special_token_56|>",
      "single_word": false,
      "lstrip": false,
      "rstrip": false,
      "normalized": false,
      "special": true
    },
    {
      "id": 73,
      "content": "<|reserved_special_token_57|>",
      "single_word": false,
      "lstrip": false,
      "rstrip": false,
      "normalized": false,
      "special": true
    },
    {
      "id": 74,
      "content": "<|reserved_special_token_58|>",
      "single_word": false,
      "lstrip": false,
      "rstrip": false,
      "normalized": false,
      "special": true
    },
    {
      "id": 75,
      "content": "<|reserved_special_token_59|>",
      "single_word": false,
      "lstrip": false,
      "rstrip": false,
      "normalized": false,
      "special": true
    },
    {
      "id": 76,
      "content": "<|reserved_special_token_60|>",
      "single_word": false,
      "lstrip": false,
      "rstrip": false,
      "normalized": false,
      "special": true
    },
    {
      "id": 77,
      "content": "<|reserved_special_token_61|>",
      "single_word": false,
      "lstrip": false,
      "rstrip": false,
      "normalized": false,
      "special": true
    },
    {
      "id": 78,
      "content": "<|reserved_special_token_62|>",
      "single_word": false,
      "lstrip": false,
      "rstrip": false,
      "normalized": false,
      "special": true
    },
    {
      "id": 79,
      "content": "<|reserved_special_token_63|>",
      "single_word": false,
      "lstrip": false,
      "rstrip": false,
      "normalized": false,
      "special": true
    },
    {
      "id": 80,
      "content": "<|reserved_special_token_64|>",
      "single_word": false,
      "lstrip": false,
      "rstrip": false,
      "normalized": false,
      "special": true
    },
    {
      "id": 81,
      "content": "<|reserved_special_token_65|>",
      "single_word": false,
      "lstrip": false,
      "rstrip": false,
      "normalized": false,
      "special": true
    },
    {
      "id": 82,
      "content": "<|reserved_special_token_66|>",
      "single_word": false,
      "lstrip": false,
      "rstrip": false,
      "normalized": false,
      "special": true
    },
    {
      "id": 83,
      "content": "<|reserved_special_token_67|>",
      "single_word": false,
      "lstrip": false,
      "rstrip": false,
      "normalized": false,
      "special": true
    },
    {
      "id": 84,
      "content": "<|reserved_special_token_68|>",
      "single_word": false,
      "lstrip": false,
      "rstrip": false,
      "normalized": false,
      "special": true
    },
    {
      "id": 85,
      "content": "<|reserved_special_token_69|>",
      "single_word": false,
      "lstrip": false,
      "rstrip": false,
      "normalized": false,
      "special": true
    },
    {
      "id": 86,
      "content": "<|reserved_special_token_70|>",
      "single_word": false,
      "lstrip": false,
      "rstrip": false,
      "normalized": false,
      "special": true
    },
    {
      "id": 87,
      "content": "<|reserved_special_token_71|>",
      "single_word": false,
      "lstrip": false,
      "rstrip": false,
      "normalized": false,
      "special": true
    },
    {
      "id": 88,
      "content": "<|reserved_special_token_72|>",
      "single_word": false,
      "lstrip": false,
      "rstrip": false,
      "normalized": false,
      "special": true
    },
    {
      "id": 89,
      "content": "<|reserved_special_token_73|>",
      "single_word": false,
      "lstrip": false,
      "rstrip": false,
      "normalized": false,
      "special": true
    },
    {
      "id": 90,
      "content": "<|reserved_special_token_74|>",
      "single_word": false,
      "lstrip": false,
      "rstrip": false,
      "normalized": false,
      "special": true
    },
    {
      "id": 91,
      "content": "<|reserved_special_token_75|>",
      "single_word": false,
      "lstrip": false,
      "rstrip": false,
      "normalized": false,
      "special": true
    },
    {
      "id": 92,
      "content": "<|reserved_special_token_76|>",
      "single_word": false,
      "lstrip": false,
      "rstrip": false,
      "normalized": false,
      "special": true
    },
    {
      "id": 93,
      "content": "<|reserved_special_token_77|>",
      "single_word": false,
      "lstrip": false,
      "rstrip": false,
      "normalized": false,
      "special": true
    },
    {
      "id": 94,
      "content": "<|reserved_special_token_78|>",
      "single_word": false,
      "lstrip": false,
      "rstrip": false,
      "normalized": false,
      "special": true
    },
    {
      "id": 95,
      "content": "<|reserved_special_token_79|>",
      "single_word": false,
      "lstrip": false,
      "rstrip": false,
      "normalized": false,
      "special": true
    },
    {
      "id": 163840,
      "content": "  ",
      "single_word": false,
      "lstrip": false,
      "rstrip": false,
      "normalized": false,
      "special": false
    },
    {
      "id": 163841,
      "content": "   ",
      "single_word": false,
      "lstrip": false,
      "rstrip": false,
      "normalized": false,
      "special": false
    },
    {
      "id": 163842,
      "content": "       ",
      "single_word": false,
      "lstrip": false,
      "rstrip": false,
      "normalized": false,
      "special": false
    },
    {
      "id": 163843,
      "content": "           ",
      "single_word": false,
      "lstrip": false,
      "rstrip": false,
      "normalized": false,
      "special": false
    },
    {
      "id": 163844,
      "content": "    ",
      "single_word": false,
      "lstrip": false,
      "rstrip": false,
      "normalized": false,
      "special": false
    },
    {
      "id": 163845,
      "content": "        ",
      "single_word": false,
      "lstrip": false,
      "rstrip": false,
      "normalized": false,
      "special": false
    },
    {
      "id": 163846,
      "content": "\n    \n",
      "single_word": false,
      "lstrip": false,
      "rstrip": false,
      "normalized": false,
      "special": false
    },
    {
      "id": 163847,
      "content": "\n        \n",
      "single_word": false,
      "lstrip": false,
      "rstrip": false,
      "normalized": false,
      "special": false
    },
    {
      "id": 163848,
      "content": "\n            \n",
      "single_word": false,
      "lstrip": false,
      "rstrip": false,
      "normalized": false,
      "special": false
    },
    {
      "id": 163849,
      "content": "    \n",
      "single_word": false,
      "lstrip": false,
      "rstrip": false,
      "normalized": false,
      "special": false
    },
    {
      "id": 163850,
      "content": "        \n",
      "single_word": false,
      "lstrip": false,
      "rstrip": false,
      "normalized": false,
      "special": false
    },
    {
      "id": 163851,
      "content": "\n\n",
      "single_word": false,
      "lstrip": false,
      "rstrip": false,
      "normalized": false,
      "special": false
    },
    {
      "id": 163852,
      "content": "\t",
      "single_word": false,
      "lstrip": false,
      "rstrip": false,
      "normalized": false,
      "special": false
    },
    {
      "id": 163853,
      "content": "\t\t",
      "single_word": false,
      "lstrip": false,
      "rstrip": false,
      "normalized": false,
      "special": false
    },
    {
      "id": 163854,
      "content": "\t\t\t",
      "single_word": false,
      "lstrip": false,
      "rstrip": false,
      "normalized": false,
      "special": false
    },
    {
      "id": 163855,
      "content": "():\n",
      "single_word": false,
      "lstrip": false,
      "rstrip": false,
      "normalized": false,
      "special": false
    },
    {
      "id": 163856,
      "content": "};\n",
      "single_word": false,
      "lstrip": false,
      "rstrip": false,
      "normalized": false,
      "special": false
    },
    {
      "id": 163857,
      "content": "});\n",
      "single_word": false,
      "lstrip": false,
      "rstrip": false,
      "normalized": false,
      "special": false
    },
    {
      "id": 163858,
      "content": "}\n",
      "single_word": false,
      "lstrip": false,
      "rstrip": false,
      "normalized": false,
      "special": false
    },
    {
      "id": 163859,
      "content": ");\n",
      "single_word": false,
      "lstrip": false,
      "rstrip": false,
      "normalized": false,
      "special": false
    }
  ],
  "normalizer": null,
  "pre_tokenizer": {
    "type": "Sequence",
    "pretokenizers": [
      {
        "type": "Split",
        "pattern": {
          "Regex": "[^\\r\\n\\p{L}\\p{N}]?[\\p{Lu}\\p{Lt}\\p{Lm}\\p{Lo}\\p{M}]*[\\p{Ll}\\p{Lm}\\p{Lo}\\p{M}]+(?i:'s|'t|'re|'ve|'m|'ll|'d)?|[^\\r\\n\\p{L}\\p{N}]?[\\p{Lu}\\p{Lt}\\p{Lm}\\p{Lo}\\p{M}]+[\\p{Ll}\\p{Lm}\\p{Lo}\\p{M}]*(?i:'s|'t|'re|'ve|'m|'ll|'d)?|\\p{N}{1,3}| ?[^\\s\\p{L}\\p{N}]+[\\r\\n/]*|\\s*[\\r\\n]+|\\s+(?!\\S)|\\s+"
        },
        "behavior": "Isolated",
        "invert": false
      },
      {
        "type": "ByteLevel",
        "add_prefix_space": false,
        "trim_offsets": true,
        "use_regex": false
      }
    ]
  },
  "post_processor": null,
  "decoder": {
    "type": "ByteLevel",
    "add_prefix_space": true,
    "trim_offsets": true,
    "use_regex": true
  },
  "model": {
    "type": "BPE",
    "dropout": null,
    "unk_token": null,
    "continuing_subword_prefix": null,
    "end_of_word_suffix": null,
    "fuse_unk": false,
    "byte_fallback": false,
    "ignore_merges": false,
    "vocab": {
      "<|endoftext|>": 0,
      "<|pad|>": 1,
      "<|im_start|>": 2,
      "<|im_end|>": 3,
      "<|fim_prefix|>": 4,
      "<|fim_middle|>": 5,
      "<|fim_suffix|>": 6,
      "<|fim_pad|>": 7,
      "<|repo_name|>": 8,
      "<|file_sep|>": 9,
      "<tool_call>": 10,
      "</tool_call>": 11,
      "<tool_response>": 12,
      "</tool_response>": 13,
      "<think>": 14,
      "</think>": 15,
      "<|reserved_special_token_0|>": 16,
      "<|reserved_special_token_1|>": 17,
      "<|reserved_special_token_2|>": 18,
      "<|reserved_special_token_3|>": 19,
      "<|reserved_special_token_4|>": 20,
      "<|reserved_special_token_5|>": 21,
      "<|reserved_special_token_6|>": 22,
      "<|reserved_special_token_7|>": 23,
      "<|reserved_special_token_8|>": 24,
      "<|reserved_special_token_9|>": 25,
      "<|reserved_special_token_10|>": 26,
      "<|reserved_special_token_11|>": 27,
      "<|reserved_special_token_12|>": 28,
      "<|reserved_special_token_13|>": 29,
      "<|reserved_special_token_14|>": 30,
      "<|reserved_special_token_15|>": 31,
      "<|reserved_special_token_16|>": 32,
      "<|reserved_special_token_17|>": 33,
      "<|reserved_special_token_18|>": 34,
      "<|reserved_special_token_19|>": 35,
      "<|reserved_special_token_20|>": 36,
      "<|reserved_special_token_21|>": 37,
      "<|reserved_special_token_22|>": 38,
      "<|reserved_special_token_23|>": 39,
      "<|reserved_special_token_24|>": 40,
      "<|reserved_special_token_25|>": 41,
      "<|reserved_special_token_26|>": 42,
      "<|reserved_special_token_27|>": 43,
      "<|reserved_special_token_28|>": 44,
      "<|reserved_special_token_29|>": 45,
      "<|reserved_special_token_30|>": 46,
      "<|reserved_special_token_31|>": 47,
      "<|reserved_special_token_32|>": 48,
      "<|reserved_special_token_33|>": 49,
      "<|reserved_special_token_34|>": 50,
      "<|reserved_special_token_35|>": 51,
      "<|reserved_special_token_36|>": 52,
      "<|reserved_special_token_37|>": 53,
      "<|reserved_special_token_38|>": 54,
      "<|reserved_special_token_39|>": 55,
      "<|reserved_special_token_40|>": 56,
      "<|reserved_special_token_41|>": 57,
      "<|reserved_special_token_42|>": 58,
      "<|reserved_special_token_43|>": 59,
      "<|reserved_special_token_44|>": 60,
      "<|reserved_special_token_45|>": 61,
      "<|reserved_special_token_46|>": 62,
      "<|reserved_special_token_47|>": 63,
      "<|reserved_special_token_48|>": 64,
      "<|reserved_special_token_49|>": 65,
      "<|reserved_special_token_50|>": 66,
      "<|reserved_special_token_51|>": 67,
      "<|reserved_special_token_52|>": 68,
      "<|reserved_special_token_53|>": 69,
      "<|reserved_special_token_54|>": 70,
      "<|reserved_special_token_55|>": 71,
      "<|reserved_special_token_56|>": 72,
      "<|reserved_special_token_57|>": 73,
      "<|reserved_special_token_58|>": 74,
      "<|reserved_special_token_59|>": 75,
      "<|reserved_special_token_60|>": 76,
      "<|reserved_special_token_61|>": 77,
      "<|reserved_special_token_62|>": 78,
      "<|reserved_special_token_63|>": 79,
      "<|reserved_special_token_64|>": 80,
      "<|reserved_special_token_65|>": 81,
      "<|reserved_special_token_66|>": 82,
      "<|reserved_special_token_67|>": 83,
      "<|reserved_special_token_68|>": 84,
      "<|reserved_special_token_69|>": 85,
      "<|reserved_special_token_70|>": 86,
      "<|reserved_special_token_71|>": 87,
      "<|reserved_special_token_72|>": 88,
      "<|reserved_special_token_73|>": 89,
      "<|reserved_special_token_74|>": 90,
      "<|reserved_special_token_75|>": 91,
      "<|reserved_special_token_76|>": 92,
      "<|reserved_special_token_77|>": 93,
      "<|reserved_special_token_78|>": 94,
      "<|reserved_special_token_79|>": 95,
      "!": 96,
      "\"": 97,
      "#": 98,
      "$": 99,
      "%": 100,
      "&": 101,
      "'": 102,
      "(": 103,
      ")": 104,
      "*": 105,
      "+": 106,
      ",": 107,
      "-": 108,
      ".": 109,
      "/": 110,
      "0": 111,
      "1": 112,
      "2": 113,
      "3": 114,
      "4": 115,
      "5": 116,
      "6": 117,
      "7": 118,
      "8": 119,
      "9": 120,
      ":": 121,
      ";": 122,
      "<": 123,
      "=": 124,
      ">": 125,
      "?": 126,
      "@": 127,
      "A": 128,
      "B": 129,
      "C": 130,
      "D": 131,
      "E": 132,
      "F": 133,
      "G": 134,
      "H": 135,
      "I": 136,
      "J": 137,
      "K": 138,
      "L": 139,
      "M": 140,
      "N": 141,
      "O": 142,
      "P": 143,
      "Q": 144,
      "R": 145,
      "S": 146,
      "T": 147,
      "U": 148,
      "V": 149,
      "W": 150,
      "X": 151,
      "Y": 152,
      "Z": 153,
      "[": 154,
      "\\": 155,
      "]": 156,
      "^": 157,
      "_": 158,
      "`": 159,
      "a": 160,
      "b": 161,
      "c": 162,
      "d": 163,
      "e": 164,
      "f": 165,
      "g": 166,
      "h": 167,
      "i": 168,
      "j": 169,
      "k": 170,
      "l": 171,
      "m": 172,
      "n": 173,
      "o": 174,
      "p": 175,
      "q": 176,
      "r": 177,
      "s": 178,
      "t": 179,
      "u": 180,
      "v": 181,
      "w": 182,
      "x": 183,
      "y": 184,
      "z": 185,
      "{": 186,
      "|": 187,
      "}": 188,
      "~": 189,
      "¡": 190,
      "¢": 191,
      "£": 192,
      "¤": 193,
      "¥": 194,
      "¦": 195,
      "§": 196,
      "¨": 197,
      "©": 198,
      "ª": 199,
      "«": 200,
      "¬": 201,
      "®": 202,
      "¯": 203,
      "°": 204,
      "±": 205,
      "²": 206,
      "³": 207,
      "´": 208,
      "µ": 209,
      "¶": 210,
      "·": 211,
      "¸": 212,
      "¹": 213,
      "º": 214,
      "»": 215,
      "¼": 216,
      "½": 217,
      "¾": 218,
      "¿": 219,
      "À": 220,
      "Á": 221,
      "Â": 222,
      "Ã": 223,
      "Ä": 224,
      "Å": 225,
      "Æ": 226,
      "Ç": 227,
      "È": 228,
      "É": 229,
      "Ê": 230,
      "Ë": 231,
      "Ì": 232,
      "Í": 233,
      "Î": 234,
      "Ï": 235,
      "Ð": 236,
      "Ñ": 237,
      "Ò": 238,
      "Ó": 239,
      "Ô": 240,
      "Õ": 241,
      "Ö": 242,
      "×": 243,
      "Ø": 244,
      "Ù": 245,
      "Ú": 246,
      "Û": 247,
      "Ü": 248,
      "Ý": 249,
      "Þ": 250,
      "ß": 251,
      "à": 252,
      "á": 253,
      "â": 254,
      "ã": 255,
      "ä": 256,
      "å": 257,
      "æ": 258,
      "ç": 259,
      "è": 260,
      "é": 261,
      "ê": 262,
      "ë": 263,
      "ì": 264,
      "í": 265,
      "î": 266,
      "ï": 267,
      "ð": 268,
      "ñ": 269,
      "ò": 270,
      "ó": 271,
      "ô": 272,
      "õ": 273,
      "ö": 274,
      "÷": 275,
      "ø": 276,
      "ù": 277,
      "ú": 278,
      "û": 279,
      "ü": 280,
      "ý": 281,
      "þ": 282,
      "ÿ": 283,
      "Ā": 284,
      "ā": 285,
      "Ă": 286,
      "ă": 287,
      "Ą": 288,
      "ą": 289,
      "Ć": 290,
      "ć": 291,
      "Ĉ": 292,
      "ĉ": 293,
      "Ċ": 294,
      "ċ": 295,
      "Č": 296,
      "č": 297,
      "Ď": 298,
      "ď": 299,
      "Đ": 300,
      "đ": 301,
      "Ē": 302,
      "ē": 303,
      "Ĕ": 304,
      "ĕ": 305,
      "Ė": 306,
      "ė": 307,
      "Ę": 308,
      "ę": 309,
      "Ě": 310,
      "ě": 311,
      "Ĝ": 312,
      "ĝ": 313,
      "Ğ": 314,
      "ğ": 315,
      "Ġ": 316,
      "ġ": 317,
      "Ģ": 318,
      "ģ": 319,
      "Ĥ": 320,
      "ĥ": 321,
      "Ħ": 322,
      "ħ": 323,
      "Ĩ": 324,
      "ĩ": 325,
      "Ī": 326,
      "ī": 327,
      "Ĭ": 328,
      "ĭ": 329,
      "Į": 330,
      "į": 331,
      "İ": 332,
      "ı": 333,
      "Ĳ": 334,
      "ĳ": 335,
      "Ĵ": 336,
      "ĵ": 337,
      "Ķ": 338,
      "ķ": 339,
      "ĸ": 340,
      "Ĺ": 341,
      "ĺ": 342,
      "Ļ": 343,
      "ļ": 344,
      "Ľ": 345,
      "ľ": 346,
      "Ŀ": 347,
      "ŀ": 348,
      "Ł": 349,
      "ł": 350,
      "Ń": 351,
      "Ġt": 352,
      "Ġa": 353,
      "in": 354,
      "he": 355,
      "re": 356,
      "on": 357,
      "er": 358,
      "at": 359,
      "Ġs": 360,
      "en": 361,
      "Ġthe": 362,
      "or": 363,
      "Ġì": 364,
      "es": 365,
      "Ġc": 366,
      "an": 367,
      "is": 368,
      "Ġo": 369,
      "it": 370,
      "al": 371,
      "Ġp": 372,
      "Ġw": 373,
      "ar": 374,
      "Ġf": 375,
      "Ġb": 376,
      "ed": 377,
      "Ġd": 378,
      "nd": 379,
      "ing": 380,
      "Ġm": 381,
      "ou": 382,
      "Ġin": 383,
      "Ġof": 384,
      "ion": 385,
      "ic": 386,
      "le": 387,
      "Ġë": 388,
      "Ġto": 389,
      "ro": 390,
      "ìĿ": 391,
      "Ġand": 392,
      "as": 393,
      "ent": 394,
      "ct": 395,
      "Ġh": 396,
      "et": 397,
      "Ġn": 398,
      "el": 399,
      "il": 400,
      "st": 401,
      "Ġth": 402,
      "Ġre": 403,
      "íķ": 404,
      "Ġl": 405,
      "om": 406,
      "Ġe": 407,
      "Ġê": 408,
      ".Ċ": 409,
      "âĢ": 410,
      "ur": 411,
      "id": 412,
      "im": 413,
      "ol": 414,
      "am": 415,
      "ut": 416,
      "Ġg": 417,
      "se": 418,
      "ve": 419,
      "ëĭ": 420,
      "ĠT": 421,
      "ch": 422,
      "Ġis": 423,
      "ce": 424,
      "ation": 425,
      "ig": 426,
      "ot": 427,
      "ad": 428,
      "Ġu": 429,
      "ĠA": 430,
      "ĠS": 431,
      "ow": 432,
      "ul": 433,
      "Ġbe": 434,
      "Ġst": 435,
      "ly": 436,
      "Ġv": 437,
      "Ġfor": 438,
      "ĠC": 439,
      "if": 440,
      "ra": 441,
      "Ġ(": 442,
      "od": 443,
      "ir": 444,
      "Ø§": 445,
      "Ġí": 446,
      "ĠI": 447,
      "Ġy": 448,
      "Ġon": 449,
      "ìĹ": 450,
      "Ġthat": 451,
      "ver": 452,
      "ay": 453,
      "em": 454,
      "Ġcon": 455,
      "ag": 456,
      "ter": 457,
      "un": 458,
      "Ġpro": 459,
      "ith": 460,
      "Ġas": 461,
      "Ġde": 462,
      "th": 463,
      ";Ċ": 464,
      "ëĬ": 465,
      "pe": 466,
      "ate": 467,
      "um": 468,
      "est": 469,
      "ĠM": 470,
      "ëĭ¤": 471,
      "qu": 472,
      "ab": 473,
      "ìĿ´": 474,
      "ist": 475,
      "Ġan": 476,
      "ê³": 477,
      "ĠP": 478,
      "her": 479,
      "Ġ=": 480,
      "Ġal": 481,
      "ëĬĶ": 482,
      "us": 483,
      "os": 484,
      "ri": 485,
      "ìł": 486,
      "Ġare": 487,
      "Ġor": 488,
      "Ġwith": 489,
      "ac": 490,
      "ess": 491,
      "op": 492,
      "ers": 493,
      "Ġit": 494,
      "res": 495,
      "Ġk": 496,
      "Ġyou": 497,
      "Ġwh": 498,
      "ort": 499,
      "ĠB": 500,
      "and": 501,
      "ìĦ": 502,
      "ak": 503,
      "ĠØ": 504,
      "ĉĉ": 505,
      "ĠThe": 506,
      "ìŀ": 507,
      "oc": 508,
      "ìĿĦ": 509,
      "ĠÐ": 510,
      "íķĺ": 511,
      "nt": 512,
      "Ġex": 513,
      "ment": 514,
      "Ġìŀ": 515,
      "Ġ{": 516,
      "Ġcom": 517,
      "ill": 518,
      "Ġhe": 519,
      "Ġ\"": 520,
      "ere": 521,
      "âĢĻ": 522,
      "ê°": 523,
      "ìĹĲ": 524,
      "rom": 525,
      "ect": 526,
      "ĠD": 527,
      "ore": 528,
      "ap": 529,
      "Ġr": 530,
      "ĠìĿ": 531,
      "ity": 532,
      "ĠH": 533,
      ")Ċ": 534,
      "ĠE": 535,
      "ìĿĺ": 536,
      "ë¡": 537,
      "ew": 538,
      "iv": 539,
      "ant": 540,
      "ìļ": 541,
      "00": 542,
      "ies": 543,
      "ĠR": 544,
      "ain": 545,
      "Ġsu": 546,
      "ĠÙ": 547,
      "ì§": 548,
      "og": 549,
      "ĠâĢ": 550,
      "ĠW": 551,
      "Ġat": 552,
      "ht": 553,
      "ãģ": 554,
      "ld": 555,
      "ud": 556,
      "Ð¾": 557,
      "Ġch": 558,
      "¸°": 559,
      "Īëĭ¤": 560,
      "Ġby": 561,
      "ĠF": 562,
      "Ġse": 563,
      "íķľ": 564,
      "ĠN": 565,
      "pl": 566,
      "ë¥": 567,
      ",Ċ": 568,
      "ĠL": 569,
      "ive": 570,
      "ÙĦ": 571,
      "Ġìł": 572,
      "ction": 573,
      "Ġfrom": 574,
      "art": 575,
      "pt": 576,
      "Ġen": 577,
      "ĠÎ": 578,
      "port": 579,
      "Ġ{Ċ": 580,
      "ĠG": 581,
      "ë¡ľ": 582,
      "Ġle": 583,
      "ìĬ": 584,
      "Ġcan": 585,
      "Ðµ": 586,
      "ave": 587,
      "ure": 588,
      "ial": 589,
      "ex": 590,
      "ang": 591,
      "}Ċ": 592,
      "Ġthis": 593,
      "ìĭ": 594,
      "Ġwas": 595,
      "Ĥ¬": 596,
      "iz": 597,
      ");Ċ": 598,
      "Ġnot": 599,
      "urn": 600,
      "ame": 601,
      "ue": 602,
      "20": 603,
      "all": 604,
      "Ø±": 605,
      "age": 606,
      "Ð°": 607,
      "ff": 608,
      "end": 609,
      "ìľ": 610,
      "per": 611,
      "ëĭĪëĭ¤": 612,
      "ight": 613,
      "our": 614,
      "ost": 615,
      "á»": 616,
      "ine": 617,
      "out": 618,
      "ê³ł": 619,
      "--": 620,
      "´ë": 621,
      "ÙĨ": 622,
      "ical": 623,
      "Ã©": 624,
      "ult": 625,
      "Ġsh": 626,
      "//": 627,
      "ell": 628,
      "ë¥¼": 629,
      "ìķ": 630,
      "Ġê°": 631,
      "rou": 632,
      "Ġhave": 633,
      "Ð¸": 634,
      "ì§Ģ": 635,
      "Ġim": 636,
      "ĠO": 637,
      "cl": 638,
      "are": 639,
      "Î±": 640,
      "Ã¡": 641,
      "Īĺ": 642,
      "Ġë°": 643,
      "Ġj": 644,
      "ass": 645,
      "ê²": 646,
      "ê¸°": 647,
      "ë¦": 648,
      "ich": 649,
      "ìĿĢ": 650,
      "ust": 651,
      "ans": 652,
      "Ġint": 653,
      "ÏĦ": 654,
      "Ġwe": 655,
      "ëı": 656,
      "ê°Ģ": 657,
      "ub": 658,
      "ard": 659,
      "ÑĤ": 660,
      "turn": 661,
      "Ġab": 662,
      "()": 663,
      "ia": 664,
      "Ġê²": 665,
      "ast": 666,
      "ind": 667,
      "ated": 668,
      "Ġwor": 669,
      "Ġ*": 670,
      "ip": 671,
      "Ġus": 672,
      "ok": 673,
      "Ġtr": 674,
      "orm": 675,
      "ould": 676,
      "ik": 677,
      "ĠU": 678,
      "Ġpl": 679,
      "19": 680,
      "ie": 681,
      "ions": 682,
      "ĠJ": 683,
      "act": 684,
      "Î¿": 685,
      "Ġìķ": 686,
      "The": 687,
      "Ġne": 688,
      "ĠØ§": 689,
      "ib": 690,
      "ëĵ": 691,
      "ome": 692,
      "ìĸ": 693,
      "Ġres": 694,
      "ĮĢ": 695,
      "con": 696,
      "able": 697,
      "âĢĻs": 698,
      "av": 699,
      "cc": 700,
      "âĢĿ": 701,
      "ther": 702,
      "ÛĮ": 703,
      "int": 704,
      "Ġcont": 705,
      "ìĦľ": 706,
      "ide": 707,
      "ìĿ¸": 708,
      "ire": 709,
      "Ð½": 710,
      "Î¹": 711,
      "Ġad": 712,
      "du": 713,
      "Ġìĭ": 714,
      "Ġ'": 715,
      "Ñģ": 716,
      "ack": 717,
      "\\x": 718,
      "ge": 719,
      "ase": 720,
      "ong": 721,
      "Ġtheir": 722,
      "ng": 723,
      "íķ´": 724,
      "\",": 725,
      "ÙĪ": 726,
      "Ġdo": 727,
      "ild": 728,
      "ru": 729,
      "ÙĬ": 730,
      "ring": 731,
      "hen": 732,
      "Ġcl": 733,
      "ë¦¬": 734,
      "Ùħ": 735,
      "Ġall": 736,
      "ous": 737,
      "ĠIn": 738,
      "Ġqu": 739,
      "ile": 740,
      "ĠìŀĪ": 741,
      "ÑĢ": 742,
      "),": 743,
      "Ø¯": 744,
      "ents": 745,
      "ice": 746,
      "Øª": 747,
      "Ð¾Ð": 748,
      "Ġwhich": 749,
      "ĠìĦ": 750,
      "Ġcomp": 751,
      "Ġdis": 752,
      "Ġyour": 753,
      "te": 754,
      "êµ": 755,
      "ime": 756,
      "ations": 757,
      "Ġun": 758,
      "ìĽ": 759,
      "Ġwill": 760,
      "Ġthey": 761,
      "ear": 762,
      "ood": 763,
      "vel": 764,
      "Ùĩ": 765,
      "ĠìĪĺ": 766,
      "gh": 767,
      "Ġif": 768,
      "pp": 769,
      "ary": 770,
      "ë³": 771,
      "so": 772,
      ":Ċ": 773,
      "ord": 774,
      "ace": 775,
      "Ġë§": 776,
      "get": 777,
      "Î½": 778,
      "ĠâĢľ": 779,
      "ĠìĹ": 780,
      "ance": 781,
      "Ġper": 782,
      "Ġhas": 783,
      "ĠK": 784,
      "ress": 785,
      "Îµ": 786,
      "ens": 787,
      "ber": 788,
      "ype": 789,
      "ep": 790,
      "ign": 791,
      "čĊ": 792,
      "Ġmore": 793,
      "ual": 794,
      "ìĬ¤": 795,
      "one": 796,
      "ach": 797,
      "ry": 798,
      "ater": 799,
      "ata": 800,
      "ĠìĿ´": 801,
      "Ġê³": 802,
      "ĠTh": 803,
      "Ġme": 804,
      "ëł": 805,
      "ence": 806,
      "Ġar": 807,
      "ìľ¼": 808,
      "ëıĦ": 809,
      "ìŀĲ": 810,
      "ëĤ": 811,
      "Ġman": 812,
      "ext": 813,
      "**": 814,
      "ë§": 815,
      "ount": 816,
      "Ġì§": 817,
      "ÃŃ": 818,
      "ition": 819,
      "ject": 820,
      "au": 821,
      ").": 822,
      "ory": 823,
      "ê³¼": 824,
      "ĠSt": 825,
      "ef": 826,
      "ãĤ": 827,
      "St": 828,
      "ĥģ": 829,
      "Ġëĭ": 830,
      "In": 831,
      "íĻ": 832,
      "Ġother": 833,
      "ake": 834,
      "Ġbut": 835,
      "ob": 836,
      "elf": 837,
      "ose": 838,
      "ìĤ¬": 839,
      "==": 840,
      "áº": 841,
      "ĠV": 842,
      "form": 843,
      "ë©": 844,
      "ĠìĤ¬": 845,
      "(\"": 846,
      "err": 847,
      "ite": 848,
      "Ġ-": 849,
      "10": 850,
      "erv": 851,
      "Ġpre": 852,
      "ë°": 853,
      "Ġwere": 854,
      "ail": 855,
      "Ġte": 856,
      "Ġout": 857,
      "ks": 858,
      "ìłģ": 859,
      "ath": 860,
      "ci": 861,
      "Ġë³": 862,
      "ors": 863,
      "ert": 864,
      "'s": 865,
      "Ġone": 866,
      "Ġso": 867,
      "£¼": 868,
      "unction": 869,
      "Ġsp": 870,
      "Ġalso": 871,
      "Ŀ¼": 872,
      "Ġíķ": 873,
      "Ġìĺ": 874,
      "Ïĥ": 875,
      "ely": 876,
      "ĠØ§ÙĦ": 877,
      "ìĭľ": 878,
      "ìļĶ": 879,
      "cre": 880,
      "com": 881,
      "Ġpart": 882,
      "ë¬": 883,
      "ces": 884,
      "Ïģ": 885,
      "lic": 886,
      "Ġev": 887,
      "}ĊĊ": 888,
      "Ġnew": 889,
      "return": 890,
      "Ġ:": 891,
      "ìĬµ": 892,
      "ìļ©": 893,
      "reat": 894,
      "Ġìľ": 895,
      "ë¶": 896,
      "pro": 897,
      "ll": 898,
      "ound": 899,
      "íĬ": 900,
      "..": 901,
      "Ġsy": 902,
      "ont": 903,
      "ëŀ": 904,
      "ìłķ": 905,
      "Ġstud": 906,
      "ìľ¼ë¡ľ": 907,
      "Ġpe": 908,
      "Âł": 909,
      "ric": 910,
      "ey": 911,
      "ish": 912,
      "ìĸ´": 913,
      "row": 914,
      "Ġup": 915,
      "ook": 916,
      "Ġcomm": 917,
      "pec": 918,
      "ì²": 919,
      "Ġund": 920,
      "own": 921,
      "Ġabout": 922,
      "Ð»": 923,
      "ov": 924,
      "ph": 925,
      "ple": 926,
      "Ġ[": 927,
      "ãĢ": 928,
      "Ġi": 929,
      "ëĿ¼": 930,
      "201": 931,
      "Ġê¸°": 932,
      "ĠëĮĢ": 933,
      "ode": 934,
      "Ġwho": 935,
      "ÏĢ": 936,
      "olog": 937,
      "Ġz": 938,
      "ìĹĲìĦľ": 939,
      "ê²Į": 940,
      "ìĬµëĭĪëĭ¤": 941,
      "Ġdes": 942,
      "ĨĮ": 943,
      "ree": 944,
      "íĬ¸": 945,
      "·¸": 946,
      "Ġind": 947,
      "ĠCh": 948,
      "Ġdi": 949,
      "Ġthem": 950,
      "----": 951,
      "Ġhis": 952,
      "iff": 953,
      "tern": 954,
      "ian": 955,
      "mer": 956,
      "ck": 957,
      "Ġ}": 958,
      "Ġits": 959,
      "Ä±": 960,
      "Ġmay": 961,
      "Ġro": 962,
      "íĸ": 963,
      "¹Ħ": 964,
      "lect": 965,
      "ates": 966,
      "ĠIt": 967,
      "ings": 968,
      "we": 969,
      "rit": 970,
      "Ã³": 971,
      "íĺ": 972,
      "ays": 973,
      "pon": 974,
      "ove": 975,
      "Ø³": 976,
      "ific": 977,
      "ëĵ¤": 978,
      "íķĺëĬĶ": 979,
      "Ġthan": 980,
      "ìŀ¥": 981,
      "Ġë¶": 982,
      "18": 983,
      "over": 984,
      "Ġcol": 985,
      "Ġê°Ģ": 986,
      "clud": 987,
      "ps": 988,
      "ĥĿ": 989,
      "\":": 990,
      "ĠëĤ": 991,
      "Ġreturn": 992,
      "low": 993,
      "ool": 994,
      "Ġag": 995,
      "ys": 996,
      "ull": 997,
      "Ġtime": 998,
      "ëĲ": 999,
      "ren": 1000,
      "Ġwhen": 1001,
      "rib": 1002,
      "ople": 1003,
      "ì¹": 1004,
      "Ġover": 1005,
      "eth": 1006,
      "ĠÙħ": 1007,
      "ener": 1008,
      "ãĥ": 1009,
      "Ġyear": 1010,
      "Ġpr": 1011,
      "ìĻ": 1012,
      "cess": 1013,
      "200": 1014,
      "Ġbeen": 1015,
      "ìĦ±": 1016,
      "ÏĤ": 1017,
      "ë²": 1018,
      "Ġ<": 1019,
      "erm": 1020,
      "Ġuse": 1021,
      "eg": 1022,
      "Ġêµ": 1023,
      "ĠY": 1024,
      "Ġthere": 1025,
      "ëħ": 1026,
      "ize": 1027,
      "Î·": 1028,
      "Ġbl": 1029,
      "che": 1030,
      "ìĺ": 1031,
      "ĊĊ": 1032,
      "Ã¶": 1033,
      "Ïħ": 1034,
      "ery": 1035,
      "ĠThis": 1036,
      "Ġwork": 1037,
      "stem": 1038,
      "ĠíĻ": 1039,
      "Ġkn": 1040,
      "Ġinto": 1041,
      ".s": 1042,
      "ari": 1043,
      "Ġsome": 1044,
      "red": 1045,
      "Ø¨": 1046,
      "Ġob": 1047,
      "alue": 1048,
      "Ġcons": 1049,
      "ublic": 1050,
      "Ġacc": 1051,
      "12": 1052,
      "ade": 1053,
      "ram": 1054,
      "Ġdiff": 1055,
      "irst": 1056,
      "Ġph": 1057,
      "Ġëª": 1058,
      "this": 1059,
      "¤ĳ": 1060,
      "ê¸": 1061,
      "Ġla": 1062,
      "ëĤĺ": 1063,
      "__": 1064,
      "Ġbec": 1065,
      "Ġbet": 1066,
      "ause": 1067,
      "ĠØ¨": 1068,
      "ning": 1069,
      "´Ģ": 1070,
      "Ġthese": 1071,
      "ĠìłĦ": 1072,
      "ec": 1073,
      "Ġhow": 1074,
      "eng": 1075,
      "Ġem": 1076,
      "ark": 1077,
      "here": 1078,
      "Ġpeople": 1079,
      "Ġlik": 1080,
      "Ġerr": 1081,
      "ange": 1082,
      "ë³´": 1083,
      "vers": 1084,
      "ìłľ": 1085,
      "Ġunder": 1086,
      "ìĽĲ": 1087,
      "Ġsa": 1088,
      "Ġget": 1089,
      "ally": 1090,
      "Ġìĭľ": 1091,
      "Ġ+": 1092,
      "ities": 1093,
      "igh": 1094,
      "Ġëı": 1095,
      "ä¸": 1096,
      "alth": 1097,
      "Ġno": 1098,
      "ï¼": 1099,
      "les": 1100,
      "ink": 1101,
      "Ġour": 1102,
      "ock": 1103,
      "Ġê²ĥ": 1104,
      "Ġhad": 1105,
      "Ġass": 1106,
      "iss": 1107,
      "ah": 1108,
      "ìĥģ": 1109,
      "ss": 1110,
      "©ëĭĪëĭ¤": 1111,
      "Ġact": 1112,
      "Ġrel": 1113,
      "ëŁ": 1114,
      "ne": 1115,
      "pect": 1116,
      "Ñĥ": 1117,
      "Ġì§Ģ": 1118,
      "Ġatt": 1119,
      "Ãł": 1120,
      "Ġmost": 1121,
      "Ġam": 1122,
      "ffect": 1123,
      "íķł": 1124,
      "ds": 1125,
      "ise": 1126,
      "ft": 1127,
      "als": 1128,
      "to": 1129,
      "íĻĶ": 1130,
      "Ġany": 1131,
      "ëĮĢ": 1132,
      "Ġel": 1133,
      "vent": 1134,
      "put": 1135,
      "ĠÄ": 1136,
      "cept": 1137,
      "ient": 1138,
      "Ġneed": 1139,
      "velop": 1140,
      "Ġìłľ": 1141,
      "Ġrec": 1142,
      "iel": 1143,
      "ìĿ¼": 1144,
      "Ġtw": 1145,
      "ìķĦ": 1146,
      "Ġìłķ": 1147,
      "Ġhel": 1148,
      "Ġwould": 1149,
      "Ġë¬": 1150,
      "Ðº": 1151,
      "ĠUn": 1152,
      "ular": 1153,
      "Ġìļ": 1154,
      "Ø¹": 1155,
      "ĠÏĦ": 1156,
      "ick": 1157,
      "Ġprodu": 1158,
      "ational": 1159,
      "Ġdef": 1160,
      "Ġsuch": 1161,
      "oss": 1162,
      "Ġreg": 1163,
      "Ġra": 1164,
      "rough": 1165,
      "Ġchild": 1166,
      "Ġapp": 1167,
      "::": 1168,
      "Ġprov": 1169,
      "iew": 1170,
      "tt": 1171,
      "ced": 1172,
      "Ġinclud": 1173,
      "ments": 1174,
      "ë©´": 1175,
      "Ġspec": 1176,
      "fter": 1177,
      "ìĻĢ": 1178,
      "Ġëĭ¤": 1179,
      "ating": 1180,
      "ĠâĢĵ": 1181,
      "Ø©": 1182,
      "Ġfe": 1183,
      "\"Ċ": 1184,
      "Ġê·¸": 1185,
      "Ġused": 1186,
      "ļĮ": 1187,
      "ars": 1188,
      "Ġ&": 1189,
      "ble": 1190,
      "15": 1191,
      "Ġtra": 1192,
      "round": 1193,
      "ons": 1194,
      "Ã¼": 1195,
      "Ġoff": 1196,
      "up": 1197,
      "ëª": 1198,
      "Ġonly": 1199,
      "ics": 1200,
      "import": 1201,
      "¡°": 1202,
      "old": 1203,
      "202": 1204,
      "Ġap": 1205,
      "ĠÙĪ": 1206,
      "oint": 1207,
      "Ġform": 1208,
      "ĠìŀĲ": 1209,
      "ĉĉĉ": 1210,
      "Ġconst": 1211,
      "Ġwhat": 1212,
      "Ġfl": 1213,
      "ative": 1214,
      "ĉreturn": 1215,
      "Ġfirst": 1216,
      "¯¸": 1217,
      "Ġadd": 1218,
      "ten": 1219,
      "ìłĦ": 1220,
      "Ġëĵ": 1221,
      ");": 1222,
      "ied": 1223,
      "Ġbu": 1224,
      "11": 1225,
      "||": 1226,
      "Ĩµ": 1227,
      "Ã¤": 1228,
      "Ñı": 1229,
      "function": 1230,
      "Ġmod": 1231,
      "arch": 1232,
      "Ġimport": 1233,
      "íĦ": 1234,
      "Ġìĸ": 1235,
      "Ġnum": 1236,
      "Î»": 1237,
      "Ġthrough": 1238,
      "ë¶Ģ": 1239,
      "Ġdevelop": 1240,
      "ility": 1241,
      "ax": 1242,
      "Ñĭ": 1243,
      "Ġinf": 1244,
      "',": 1245,
      "ible": 1246,
      "Ġmany": 1247,
      "Ð²": 1248,
      "Î¯": 1249,
      "cy": 1250,
      "arg": 1251,
      "êµ¬": 1252,
      "yp": 1253,
      "íķĺê³ł": 1254,
      "Îº": 1255,
      "16": 1256,
      "Ġdet": 1257,
      "Ð¼": 1258,
      "Ġpol": 1259,
      "Ġsub": 1260,
      "Ġsystem": 1261,
      "ful": 1262,
      "ìĪĺ": 1263,
      "Ġset": 1264,
      "its": 1265,
      "gy": 1266,
      "oth": 1267,
      "Ġself": 1268,
      "ough": 1269,
      "uring": 1270,
      "Ġdiffere": 1271,
      "ract": 1272,
      "ict": 1273,
      "Ġê²½": 1274,
      "ures": 1275,
      "wn": 1276,
      "io": 1277,
      "Ġtwo": 1278,
      "Ġmed": 1279,
      "ë¬¸": 1280,
      "ì¶": 1281,
      "ĠìķĦ": 1282,
      "ower": 1283,
      "Ġsur": 1284,
      "hed": 1285,
      "ĠìĿ´ë": 1286,
      "Ġì£¼": 1287,
      "Ġshould": 1288,
      "Ġac": 1289,
      "Ġinter": 1290,
      "ì£¼": 1291,
      "ĠÄĳ": 1292,
      "(t": 1293,
      "Ġì¤ĳ": 1294,
      "ins": 1295,
      "ased": 1296,
      "gan": 1297,
      "ution": 1298,
      "?Ċ": 1299,
      "Ġrem": 1300,
      "Ġíĺ": 1301,
      "ĉif": 1302,
      "ix": 1303,
      "Ġhelp": 1304,
      "Ġë³´": 1305,
      "Ġ:=": 1306,
      "ered": 1307,
      "Ġinst": 1308,
      "Ġlike": 1309,
      "){": 1310,
      "ek": 1311,
      "ism": 1312,
      "ruct": 1313,
      "Ġsc": 1314,
      "Î¼": 1315,
      "ÙĤ": 1316,
      "Ġtrans": 1317,
      "Ġrequ": 1318,
      "ëħĦ": 1319,
      "oid": 1320,
      "ìĨĮ": 1321,
      "Ġ}Ċ": 1322,
      "var": 1323,
      "ĠìľĦ": 1324,
      "ìŀħ": 1325,
      "ĠìŀĪìĬµëĭĪëĭ¤": 1326,
      "name": 1327,
      "Ġgo": 1328,
      "ĠHe": 1329,
      "000": 1330,
      "ork": 1331,
      "Ã¥": 1332,
      "ìĹ¬": 1333,
      "uc": 1334,
      "ìĦ¸": 1335,
      "ts": 1336,
      ".get": 1337,
      "Ġdata": 1338,
      "íĦ°": 1339,
      "ident": 1340,
      "ife": 1341,
      "app": 1342,
      "ë§Į": 1343,
      "par": 1344,
      "uch": 1345,
      "ween": 1346,
      "very": 1347,
      "Ġop": 1348,
      "Ú©": 1349,
      "Ġsm": 1350,
      "ĠìĿ¸": 1351,
      "Ġpres": 1352,
      "Ġpers": 1353,
      "de": 1354,
      "inal": 1355,
      "riv": 1356,
      "Ġpublic": 1357,
      "ê³µ": 1358,
      "Ġsk": 1359,
      "Ġwell": 1360,
      "Ġmake": 1361,
      "ëĵľ": 1362,
      "Ġresult": 1363,
      "pos": 1364,
      "ĠâĢĺ": 1365,
      "der": 1366,
      "ìĹħ": 1367,
      "Ġëį": 1368,
      "und": 1369,
      "ier": 1370,
      "ÏĮ": 1371,
      "Ġpar": 1372,
      "17": 1373,
      "ues": 1374,
      "ëıĻ": 1375,
      "ìĭł": 1376,
      "ants": 1377,
      "Ġ//": 1378,
      "Ĥ°": 1379,
      "Ġwater": 1380,
      "ĠÐ¿": 1381,
      "lo": 1382,
      "az": 1383,
      "ug": 1384,
      "Re": 1385,
      "unc": 1386,
      "ines": 1387,
      "Ùģ": 1388,
      "Ġhealth": 1389,
      "hat": 1390,
      "Ø§Ø": 1391,
      "ody": 1392,
      "13": 1393,
      "ÑĮ": 1394,
      "],": 1395,
      "ê±": 1396,
      "Ex": 1397,
      "chn": 1398,
      "Ġyears": 1399,
      "25": 1400,
      "ëį": 1401,
      "14": 1402,
      "Ġinv": 1403,
      "Ġbetween": 1404,
      "Ġíķľ": 1405,
      "ily": 1406,
      "ious": 1407,
      "('": 1408,
      "Ð´": 1409,
      "****": 1410,
      "oy": 1411,
      "pr": 1412,
      "Ġhigh": 1413,
      "íĥ": 1414,
      "ë£": 1415,
      "Ġwhere": 1416,
      "Ġcould": 1417,
      "Ġed": 1418,
      "ting": 1419,
      "fore": 1420,
      "íļĮ": 1421,
      "ë¹Ħ": 1422,
      "ature": 1423,
      "Ġì°": 1424,
      "Ġclass": 1425,
      "ĠPro": 1426,
      "Ġher": 1427,
      "ale": 1428,
      "Ġav": 1429,
      "Ġ!": 1430,
      "ever": 1431,
      "Ġtest": 1432,
      "Ġche": 1433,
      "Ġet": 1434,
      "Pro": 1435,
      "íĶ": 1436,
      "},": 1437,
      "Ġì¶": 1438,
      "aj": 1439,
      "read": 1440,
      "arm": 1441,
      "led": 1442,
      "ource": 1443,
      "ology": 1444,
      "land": 1445,
      "Ġext": 1446,
      "êµŃ": 1447,
      "Ġent": 1448,
      "ural": 1449,
      "oci": 1450,
      "Ġaut": 1451,
      "Ø§ÙĨ": 1452,
      "Î¬": 1453,
      "ists": 1454,
      "chool": 1455,
      "ited": 1456,
      "ìķ¼": 1457,
      ")ĊĊ": 1458,
      "ages": 1459,
      ".S": 1460,
      "any": 1461,
      "íĮ": 1462,
      "ĉĉĉĉ": 1463,
      "ield": 1464,
      "30": 1465,
      "Ġref": 1466,
      "Ġlong": 1467,
      "formation": 1468,
      "Ġrese": 1469,
      "ÑģÑĤ": 1470,
      "Name": 1471,
      "_t": 1472,
      "ĠíĶ": 1473,
      "ern": 1474,
      "els": 1475,
      "cent": 1476,
      "Ġfound": 1477,
      "Ġsim": 1478,
      "ï¼Į": 1479,
      "Ġcall": 1480,
      "Ġcre": 1481,
      "Ġco": 1482,
      "arn": 1483,
      "ty": 1484,
      "Ġexam": 1485,
      "meric": 1486,
      "Ġknow": 1487,
      "ĠìĬ": 1488,
      "ì¹ĺ": 1489,
      "Ġìĥģ": 1490,
      "let": 1491,
      "plic": 1492,
      "Ġgener": 1493,
      "ë©°": 1494,
      "Ġcount": 1495,
      "ually": 1496,
      "ì°": 1497,
      "Th": 1498,
      "Ġ/": 1499,
      "Ġincre": 1500,
      "ann": 1501,
      "Ġê³µ": 1502,
      "rr": 1503,
      "eb": 1504,
      "ê°Ħ": 1505,
      "çļ": 1506,
      "Ġcent": 1507,
      "Ġì²": 1508,
      "Ġsign": 1509,
      "Î¿Ïħ": 1510,
      "ER": 1511,
      "ator": 1512,
      "Ġeffect": 1513,
      "Ġjust": 1514,
      "Ġafter": 1515,
      "Ġbel": 1516,
      "Ġdifferent": 1517,
      "Ġest": 1518,
      "Ġexper": 1519,
      "ĠCom": 1520,
      "ĠÐ²": 1521,
      "Ġbecause": 1522,
      "ute": 1523,
      "ized": 1524,
      "Ġdist": 1525,
      "ev": 1526,
      "íı": 1527,
      "ê³Ħ": 1528,
      "Ġë²": 1529,
      "çļĦ": 1530,
      "atic": 1531,
      "rent": 1532,
      "();Ċ": 1533,
      "(s": 1534,
      "ption": 1535,
      "atch": 1536,
      "Ġê±": 1537,
      "Ġprog": 1538,
      "aw": 1539,
      "Ġloc": 1540,
      "Ġfol": 1541,
      "Ġthen": 1542,
      "âĢĻt": 1543,
      "ìļ°": 1544,
      "Ġgr": 1545,
      "ms": 1546,
      "Ġcur": 1547,
      "Ġmin": 1548,
      "Ġfunction": 1549,
      "Ġìľł": 1550,
      "Ġì¹": 1551,
      "Ġworld": 1552,
      ".d": 1553,
      "Ġíķĺ": 1554,
      "other": 1555,
      "Ġê´Ģ": 1556,
      ".l": 1557,
      "ices": 1558,
      "Ġprocess": 1559,
      "Ġmem": 1560,
      ".âĢĿ": 1561,
      "tr": 1562,
      "ness": 1563,
      "ĠAl": 1564,
      "Ġ@": 1565,
      "Ġeven": 1566,
      "íķ©ëĭĪëĭ¤": 1567,
      "ement": 1568,
      "--------": 1569,
      "Ġhum": 1570,
      "Type": 1571,
      "Ġstr": 1572,
      "\",Ċ": 1573,
      ";ĊĊ": 1574,
      ".m": 1575,
      "ĠAr": 1576,
      "ection": 1577,
      "Ġê¸": 1578,
      "Ġpat": 1579,
      "Ùİ": 1580,
      "Ġread": 1581,
      "##": 1582,
      "Ġvery": 1583,
      "fig": 1584,
      "Ġway": 1585,
      "Ġcar": 1586,
      "Ġsom": 1587,
      "roup": 1588,
      "son": 1589,
      "Ġvari": 1590,
      "ray": 1591,
      "Ñĩ": 1592,
      "aking": 1593,
      "iron": 1594,
      "ëĭĪ": 1595,
      "ety": 1596,
      ":\"": 1597,
      "Ġë°©": 1598,
      "gg": 1599,
      "Ġmon": 1600,
      "Ġìĭł": 1601,
      "ically": 1602,
      "ases": 1603,
      ".c": 1604,
      "ãĢĤ": 1605,
      "ìĤ°": 1606,
      "ung": 1607,
      "Ġê³ł": 1608,
      "ĠìĿ¼": 1609,
      "ĠØ¯": 1610,
      "for": 1611,
      "ĠAmeric": 1612,
      "Ġnil": 1613,
      ",\"": 1614,
      "Ġend": 1615,
      "ined": 1616,
      "ivers": 1617,
      "ÄĽ": 1618,
      "Res": 1619,
      "Ġear": 1620,
      "ives": 1621,
      "Ġë¹Ħ": 1622,
      "Ġthose": 1623,
      "ethod": 1624,
      "Ġsaid": 1625,
      "Ø§ÙĦ": 1626,
      "ĠØª": 1627,
      "ON": 1628,
      "Ġeach": 1629,
      "ĠAn": 1630,
      "Ġ#": 1631,
      "ìłģìĿ¸": 1632,
      "Ø´": 1633,
      "ien": 1634,
      "Ùĥ": 1635,
      "ĠìŀĪëĬĶ": 1636,
      "Con": 1637,
      "Ġve": 1638,
      "Ġright": 1639,
      ".p": 1640,
      "Ġfact": 1641,
      "ë²ķ": 1642,
      "Ġchildren": 1643,
      "ëĲĺ": 1644,
      "Ġevery": 1645,
      "Ġart": 1646,
      "Cont": 1647,
      "itt": 1648,
      "air": 1649,
      ".com": 1650,
      "(e": 1651,
      "ward": 1652,
      "Ġser": 1653,
      "Ġpartic": 1654,
      "sc": 1655,
      "íĸī": 1656,
      "Ġëĵ±": 1657,
      "ìĭĿ": 1658,
      "))": 1659,
      "rol": 1660,
      "ĠÏĢ": 1661,
      "Ġnumber": 1662,
      ".,": 1663,
      "ense": 1664,
      "ĠìĨĮ": 1665,
      "Ġgl": 1666,
      "iqu": 1667,
      "32": 1668,
      "nce": 1669,
      "orn": 1670,
      "ĠÑģ": 1671,
      "sh": 1672,
      "Ġbeing": 1673,
      "Cl": 1674,
      "Æ°": 1675,
      "Ġëª¨": 1676,
      "Ġtechn": 1677,
      "Ġë¶Ģ": 1678,
      "äº": 1679,
      "Ġdec": 1680,
      "Ġsup": 1681,
      "Ġes": 1682,
      "Ġmen": 1683,
      "ash": 1684,
      "ole": 1685,
      "50": 1686,
      "Ġimportant": 1687,
      "imes": 1688,
      "Ġmy": 1689,
      "Ġ}ĊĊ": 1690,
      "Ø²": 1691,
      "ĠíĨµ": 1692,
      "ID": 1693,
      "val": 1694,
      "Ġstring": 1695,
      "24": 1696,
      "Ġcommun": 1697,
      "Ġperson": 1698,
      "of": 1699,
      "Ġ.": 1700,
      "Ġinformation": 1701,
      "ets": 1702,
      "raph": 1703,
      "ĠíĮ": 1704,
      "Ġfind": 1705,
      "Ġfam": 1706,
      "Ø§Ø±": 1707,
      "oh": 1708,
      "ervice": 1709,
      "Ġshe": 1710,
      ">Ċ": 1711,
      "ran": 1712,
      "ÐµÐ½": 1713,
      "-b": 1714,
      "func": 1715,
      "Ġdisc": 1716,
      "ather": 1717,
      "Ch": 1718,
      "íŀ": 1719,
      "Ġê°ľ": 1720,
      "Ġback": 1721,
      "ìĸĳ": 1722,
      "Ġmuch": 1723,
      "Ġlife": 1724,
      "Ġlevel": 1725,
      "Ã§": 1726,
      "ê¸Ī": 1727,
      "ĠIf": 1728,
      "Ġfollow": 1729,
      "Ġdoes": 1730,
      "ron": 1731,
      "Ġrespon": 1732,
      "me": 1733,
      "ëŁ¬": 1734,
      "Ĩį": 1735,
      "isk": 1736,
      "IN": 1737,
      "Ġins": 1738,
      "ĠÎ±": 1739,
      "=\"": 1740,
      "ument": 1741,
      "ØŃ": 1742,
      "Ġown": 1743,
      "ì§Ħ": 1744,
      "Ġ==": 1745,
      "Ġmet": 1746,
      "Ġsol": 1747,
      "ĠÏĥ": 1748,
      "Ġíı": 1749,
      "ì¦": 1750,
      "ìŀħëĭĪëĭ¤": 1751,
      "Ġduring": 1752,
      "ĠNew": 1753,
      "Ġproble": 1754,
      "ìĽĶ": 1755,
      "ĠëĲ": 1756,
      "ox": 1757,
      "lement": 1758,
      "ght": 1759,
      "µľ": 1760,
      "Ġstudents": 1761,
      "ault": 1762,
      "It": 1763,
      "{Ċ": 1764,
      "Ġsame": 1765,
      "ëł¥": 1766,
      "viron": 1767,
      "the": 1768,
      "Ġexp": 1769,
      "overn": 1770,
      "dd": 1771,
      "Id": 1772,
      "String": 1773,
      "irect": 1774,
      "uk": 1775,
      "Ġlead": 1776,
      "Ġprot": 1777,
      "ength": 1778,
      "ØĮ": 1779,
      "Ġmain": 1780,
      "ĠìĽ": 1781,
      "Ġdep": 1782,
      "rop": 1783,
      "Ġ!=": 1784,
      "Ġstudy": 1785,
      "ĠëĶ": 1786,
      "ĠíĬ": 1787,
      "199": 1788,
      "Ġpop": 1789,
      "ĠAs": 1790,
      "Ġsee": 1791,
      "Ġhand": 1792,
      "Ġì¡°": 1793,
      "ead": 1794,
      "Ġhist": 1795,
      "._": 1796,
      "Ġusing": 1797,
      "Ġx": 1798,
      "ond": 1799,
      "Ġfood": 1800,
      "Ġ|": 1801,
      "íĹ": 1802,
      "ĠFor": 1803,
      "Ġshow": 1804,
      "ìĪ": 1805,
      "Err": 1806,
      "ĠSe": 1807,
      "ner": 1808,
      "ÎŃ": 1809,
      "ĠÐ½": 1810,
      "ivid": 1811,
      "Ġmade": 1812,
      "ĠThey": 1813,
      "Ġgrow": 1814,
      "Ġimp": 1815,
      "ĠÂł": 1816,
      "ential": 1817,
      "Ġdel": 1818,
      "ĠWe": 1819,
      "Ġstart": 1820,
      "uss": 1821,
      "ĠìĦľ": 1822,
      "ĠìĹ¬": 1823,
      "íĺ¸": 1824,
      "essage": 1825,
      "ĠìĦł": 1826,
      "alse": 1827,
      "Ġval": 1828,
      "Ġschool": 1829,
      "Ġgood": 1830,
      "stand": 1831,
      "Ġtem": 1832,
      "Ġke": 1833,
      "ality": 1834,
      "Ġcap": 1835,
      "ê²½": 1836,
      "âĢľ": 1837,
      "ÅĤ": 1838,
      "type": 1839,
      "Ġbefore": 1840,
      "ton": 1841,
      "ĠÎº": 1842,
      "Ġname": 1843,
      "arent": 1844,
      "ired": 1845,
      "ider": 1846,
      "add": 1847,
      "ĽĦ": 1848,
      "Ġvis": 1849,
      "100": 1850,
      "ê·": 1851,
      ").Ċ": 1852,
      "íķĻ": 1853,
      "Ġtype": 1854,
      "ê¹": 1855,
      "ma": 1856,
      "ģ¬": 1857,
      "ê´Ģ": 1858,
      "Ġboth": 1859,
      "line": 1860,
      "ved": 1861,
      "ĠInd": 1862,
      "Ġwhile": 1863,
      "ĠëıĦ": 1864,
      "Ġsci": 1865,
      "Ïī": 1866,
      "ince": 1867,
      "cont": 1868,
      "yn": 1869,
      "ĠQ": 1870,
      "Ø¬": 1871,
      "Ġêµ¬": 1872,
      "ĠìĹ°": 1873,
      "by": 1874,
      "Com": 1875,
      "ĠÐ¸": 1876,
      "íŀĪ": 1877,
      "ãģ®": 1878,
      "64": 1879,
      "ral": 1880,
      "Ġposs": 1881,
      "Ġ_": 1882,
      "ES": 1883,
      "ÑĢÐ°": 1884,
      "ler": 1885,
      "omen": 1886,
      "Ġque": 1887,
      "arge": 1888,
      "ters": 1889,
      "&&": 1890,
      "Ġbre": 1891,
      "hes": 1892,
      "ctions": 1893,
      "rain": 1894,
      "Ġìµľ": 1895,
      "ĠÙģ": 1896,
      "Ġprogram": 1897,
      "Ġlook": 1898,
      "ĠìĬ¤": 1899,
      "set": 1900,
      "ames": 1901,
      "Ð·": 1902,
      "Ġca": 1903,
      "ocial": 1904,
      "att": 1905,
      "Ġorgan": 1906,
      "ì²´": 1907,
      "Ġvalue": 1908,
      "ĠĊ": 1909,
      "ĠëĤĺ": 1910,
      "Ġcor": 1911,
      "Ġsmall": 1912,
      "ĠHow": 1913,
      "ished": 1914,
      "vironment": 1915,
      "ains": 1916,
      "Ġactiv": 1917,
      "Ġagain": 1918,
      "Ġnow": 1919,
      "_d": 1920,
      "Ġaw": 1921,
      "gen": 1922,
      "ë£Į": 1923,
      "Ġexpl": 1924,
      "ëªħ": 1925,
      "ĠìķĪ": 1926,
      "ke": 1927,
      "Ġë¯¸": 1928,
      "amp": 1929,
      "ëĬ¥": 1930,
      "ify": 1931,
      "cond": 1932,
      ");ĊĊ": 1933,
      "Ġless": 1934,
      "ccess": 1935,
      "Ġmust": 1936,
      "Ġtreat": 1937,
      "ĠAnd": 1938,
      "ì¶ľ": 1939,
      "min": 1940,
      "22": 1941,
      "Ġday": 1942,
      "\",\"": 1943,
      "Ġdem": 1944,
      "ital": 1945,
      "Ġbody": 1946,
      "Ġpos": 1947,
      "ulation": 1948,
      "ķĮ": 1949,
      "ides": 1950,
      "Ġpo": 1951,
      "Ġcond": 1952,
      "Ġrep": 1953,
      "cer": 1954,
      "ared": 1955,
      "AA": 1956,
      "()Ċ": 1957,
      "====": 1958,
      "Ġì¢": 1959,
      "ĠÃ©": 1960,
      "ìľł": 1961,
      "Î±Î¹": 1962,
      "face": 1963,
      "ĠìĤ¬ìļ©": 1964,
      "Ġtake": 1965,
      "ouse": 1966,
      "Ġsupport": 1967,
      "akes": 1968,
      "fo": 1969,
      "ĠZ": 1970,
      "ìŀ¬": 1971,
      "cri": 1972,
      "Ġpoint": 1973,
      "ĠEx": 1974,
      "List": 1975,
      "Ġoften": 1976,
      "Ġocc": 1977,
      "Ġ$": 1978,
      "To": 1979,
      "Î®": 1980,
      "Ġcell": 1981,
      "æľ": 1982,
      "hip": 1983,
      "ym": 1984,
      "itions": 1985,
      "ai": 1986,
      "Ġresearch": 1987,
      "âĢĶ": 1988,
      "¯¼": 1989,
      "ãĢģ": 1990,
      "Ð¾Ð²": 1991,
      "Ġdise": 1992,
      "Ġgen": 1993,
      "Â·": 1994,
      "Ġë°ı": 1995,
      "Ġpower": 1996,
      "ser": 1997,
      "ä»": 1998,
      "40": 1999,
      "Ġë§Ī": 2000,
      "Î³": 2001,
      "Ġdown": 2002,
      "):Ċ": 2003,
      "string": 2004,
      "AT": 2005,
      "ĠÎµ": 2006,
      "li": 2007,
      "ww": 2008,
      "Ġer": 2009,
      "ë¶Ħ": 2010,
      "Ġredu": 2011,
      "ĠìŀĪëĭ¤": 2012,
      "ves": 2013,
      "ê±°": 2014,
      "Ĩł": 2015,
      "ional": 2016,
      "ven": 2017,
      "êµĲ": 2018,
      "Ġhuman": 2019,
      "Ġstate": 2020,
      "ĠÚ©": 2021,
      ".t": 2022,
      "Ġwrit": 2023,
      "ĠìĥĿ": 2024,
      "ĠYou": 2025,
      "ìĿĮ": 2026,
      "Ġbo": 2027,
      "acter": 2028,
      "Ġdesign": 2029,
      "atus": 2030,
      "ìķĪ": 2031,
      "ization": 2032,
      "...": 2033,
      "ìĥĿ": 2034,
      "ĠDe": 2035,
      "Ġcle": 2036,
      "day": 2037,
      "ule": 2038,
      ".f": 2039,
      "ats": 2040,
      "Ġhim": 2041,
      "åı": 2042,
      "Ġcontin": 2043,
      "ury": 2044,
      "iversity": 2045,
      "ĠÐ¾": 2046,
      "Ġë¬¸": 2047,
      "ë¡Ŀ": 2048,
      "Ñħ": 2049,
      "ê°ľ": 2050,
      "-s": 2051,
      "ĠÃ": 2052,
      "Ġë°ľ": 2053,
      "ÅĻ": 2054,
      "ì¡°": 2055,
      "ross": 2056,
      "quest": 2057,
      "Ġpass": 2058,
      "aterial": 2059,
      "ĠØ£": 2060,
      "Ġconf": 2061,
      "ĠRes": 2062,
      "ĳľ": 2063,
      "hers": 2064,
      "be": 2065,
      "Ġsl": 2066,
      "ìĦł": 2067,
      "ĠìĿĺ": 2068,
      "Ġbuild": 2069,
      "Ġcommon": 2070,
      "ries": 2071,
      "hor": 2072,
      "Ġíķ´": 2073,
      "Ġaround": 2074,
      "->": 2075,
      "ĠìĺĪ": 2076,
      "This": 2077,
      "Ġreport": 2078,
      "Ġë°Ķ": 2079,
      "ger": 2080,
      "ÅŁ": 2081,
      "ìŀĦ": 2082,
      "ypes": 2083,
      "ask": 2084,
      "]Ċ": 2085,
      "ëł¤": 2086,
      "23": 2087,
      "Ġland": 2088,
      "Ġthree": 2089,
      "(n": 2090,
      "Ar": 2091,
      "AR": 2092,
      "Å¾": 2093,
      "íĹĺ": 2094,
      "Ġelse": 2095,
      "://": 2096,
      "ĠCon": 2097,
      "man": 2098,
      "ëĲľ": 2099,
      "ëĭ¨": 2100,
      "Ġquest": 2101,
      "Ġgovern": 2102,
      "ĠBut": 2103,
      "Ġequ": 2104,
      "',Ċ": 2105,
      "ĠëįĶ": 2106,
      "EN": 2107,
      "ìļ´": 2108,
      "íĴ": 2109,
      "ê·¸": 2110,
      "Ġdid": 2111,
      "ĠìĦ±": 2112,
      ",âĢĿ": 2113,
      "íķĺìĹ¬": 2114,
      "Ġtrue": 2115,
      "Error": 2116,
      "angu": 2117,
      "ĠØ¹": 2118,
      "Ġallow": 2119,
      "Ġgu": 2120,
      "ources": 2121,
      "lu": 2122,
      "ê¹Į": 2123,
      "ny": 2124,
      "Ġexample": 2125,
      "íħ": 2126,
      "Ġìĺ¤": 2127,
      "ìľĦ": 2128,
      "Ïĩ": 2129,
      "Ġê²ĥìĿ´": 2130,
      "rap": 2131,
      "ĠÙĩ": 2132,
      "Ġìĺģ": 2133,
      "Ġbeh": 2134,
      "af": 2135,
      "conom": 2136,
      "Ġbi": 2137,
      "Ġlist": 2138,
      "IC": 2139,
      "bs": 2140,
      "ush": 2141,
      "bject": 2142,
      "ĠÎ¼": 2143,
      "íķĺê¸°": 2144,
      "OR": 2145,
      "Ġcare": 2146,
      "Ġplan": 2147,
      "Ġë¶Ħ": 2148,
      "Ġgreat": 2149,
      "Ø§ÛĮ": 2150,
      "Ġë§Į": 2151,
      "oun": 2152,
      "ĠRe": 2153,
      "60": 2154,
      "lish": 2155,
      "str": 2156,
      "ĠìĦ¸": 2157,
      "Ġ*/": 2158,
      "ze": 2159,
      "Ð¿": 2160,
      "ams": 2161,
      "Ġmethod": 2162,
      "ĠëķĮ": 2163,
      "âĢĵ": 2164,
      "aut": 2165,
      "Ġener": 2166,
      "Ġcour": 2167,
      "Ġterm": 2168,
      "ination": 2169,
      "ĠIs": 2170,
      "Ġpot": 2171,
      "ified": 2172,
      "uro": 2173,
      "âĢ¦": 2174,
      "ank": 2175,
      "ina": 2176,
      "Ġincluding": 2177,
      "Ġadv": 2178,
      "Ã£": 2179,
      "Ġelect": 2180,
      "iven": 2181,
      "gs": 2182,
      "íĥĿ": 2183,
      "Ġunt": 2184,
      "_s": 2185,
      "agn": 2186,
      "Ġprof": 2187,
      "bers": 2188,
      "ott": 2189,
      "Ġide": 2190,
      "ìĺģ": 2191,
      "Ġeduc": 2192,
      "view": 2193,
      "Ġkey": 2194,
      "Ġcalled": 2195,
      "ium": 2196,
      "urs": 2197,
      "ior": 2198,
      "):": 2199,
      "28": 2200,
      "Ġfil": 2201,
      "ë§Ī": 2202,
      "ĠíķĦ": 2203,
      "Ãª": 2204,
      "Ã½": 2205,
      "alk": 2206,
      "Ø³Øª": 2207,
      "Ġunderstand": 2208,
      "Ġplace": 2209,
      "'t": 2210,
      "Ġant": 2211,
      "ĠìĻ": 2212,
      "ìĿ´íĬ¸": 2213,
      "Ġstruct": 2214,
      "ote": 2215,
      "Ġder": 2216,
      "ividual": 2217,
      "ëĦ": 2218,
      "go": 2219,
      "ĠThere": 2220,
      "Ġdon": 2221,
      "Ġchar": 2222,
      "Ġben": 2223,
      "ĠíĬ¹": 2224,
      "erc": 2225,
      "ffic": 2226,
      "outh": 2227,
      "Ġpresent": 2228,
      "Ġwant": 2229,
      "use": 2230,
      "Ġ`": 2231,
      "íģ¬": 2232,
      "Ġcase": 2233,
      "Ġproject": 2234,
      "Ġchang": 2235,
      "ason": 2236,
      "ration": 2237,
      "tain": 2238,
      "Ïį": 2239,
      "ë¯¸": 2240,
      "ìłģìľ¼ë¡ľ": 2241,
      "Æ°á»": 2242,
      "Ġstill": 2243,
      "const": 2244,
      "Ġìĸ´ë": 2245,
      "Ġgre": 2246,
      "Ġident": 2247,
      "Ġì¦": 2248,
      "27": 2249,
      "Ġchange": 2250,
      "Ġsit": 2251,
      "opy": 2252,
      "ĠEng": 2253,
      "rivate": 2254,
      "AS": 2255,
      "Ġpract": 2256,
      "Ġmat": 2257,
      "Ġbir": 2258,
      "ids": 2259,
      "iter": 2260,
      "ĠíĻķ": 2261,
      "Ġstand": 2262,
      "itive": 2263,
      "Ġíĸ": 2264,
      "ìħ": 2265,
      "ìĹ°": 2266,
      "ision": 2267,
      "oms": 2268,
      "key": 2269,
      "ĠCl": 2270,
      "ering": 2271,
      "ì°¨": 2272,
      "ately": 2273,
      "\")": 2274,
      "ĠSh": 2275,
      "Ġspe": 2276,
      "erest": 2277,
      "ĠTr": 2278,
      "Ġproduct": 2279,
      "Ġnon": 2280,
      "Ġsocial": 2281,
      "Ġcurrent": 2282,
      "_m": 2283,
      "Ġeas": 2284,
      "Ġplay": 2285,
      "ĠìķĬ": 2286,
      "Ġappro": 2287,
      "Data": 2288,
      "åħ": 2289,
      "ĠìķĮ": 2290,
      "ëŀĺ": 2291,
      "Ġknown": 2292,
      "íĴĪ": 2293,
      "less": 2294,
      "Ġwithout": 2295,
      "Ġoper": 2296,
      "Î¹Îº": 2297,
      "Ġsym": 2298,
      "ĠÙĦ": 2299,
      "ĠØ§ÙĦØ": 2300,
      "Ġbook": 2301,
      "íĥĢ": 2302,
      "lex": 2303,
      "Ġmight": 2304,
      "ĠWh": 2305,
      "co": 2306,
      "íİ": 2307,
      "Ġthink": 2308,
      "na": 2309,
      "iness": 2310,
      "Ġcaus": 2311,
      "Ġenvironment": 2312,
      "Ġbest": 2313,
      "-d": 2314,
      "uf": 2315,
      "Ð¹": 2316,
      "ially": 2317,
      "arning": 2318,
      "ìĹĲê²Į": 2319,
      ".b": 2320,
      "ĠÂ": 2321,
      "ability": 2322,
      "ĠÐº": 2323,
      "Ġobject": 2324,
      "Ã¶r": 2325,
      "ìĹŃ": 2326,
      "Ġfin": 2327,
      "Ġproper": 2328,
      "Un": 2329,
      "ë°©": 2330,
      "ĠSp": 2331,
      "ission": 2332,
      "ada": 2333,
      "Ġanal": 2334,
      "Ġwithin": 2335,
      "ait": 2336,
      "Ġold": 2337,
      "¤Ģ": 2338,
      "ception": 2339,
      "ë¬¼": 2340,
      "not": 2341,
      "Ġiss": 2342,
      "arget": 2343,
      "ording": 2344,
      "Ġeng": 2345,
      "ÑĢÐµ": 2346,
      "Ġrest": 2347,
      "Ġmaterial": 2348,
      "ĠPh": 2349,
      "Ġdev": 2350,
      "sp": 2351,
      "iod": 2352,
      "29": 2353,
      "Ġ>": 2354,
      "å¤": 2355,
      "Ġfew": 2356,
      "ij": 2357,
      "Ġmark": 2358,
      "Ġnh": 2359,
      "roll": 2360,
      "Ġenergy": 2361,
      "Ġindividual": 2362,
      "Ġìĭ¤": 2363,
      "ĠThese": 2364,
      "iving": 2365,
      "Ġlet": 2366,
      "self": 2367,
      "26": 2368,
      "Ġëħ": 2369,
      "Ġìļ°": 2370,
      "anc": 2371,
      "Ġlo": 2372,
      "raw": 2373,
      "Ġmil": 2374,
      "ateg": 2375,
      "Ġvar": 2376,
      "ì¡": 2377,
      "ertain": 2378,
      "yle": 2379,
      "inter": 2380,
      "Ġimm": 2381,
      "Ġê·": 2382,
      "_p": 2383,
      "value": 2384,
      "].": 2385,
      "Ġlearn": 2386,
      "nh": 2387,
      "-f": 2388,
      "ape": 2389,
      "Ġdirect": 2390,
      "Ġvol": 2391,
      "Ġlast": 2392,
      "80": 2393,
      "Ġdevelopment": 2394,
      "Ġphys": 2395,
      "21": 2396,
      "ì¸": 2397,
      "Ġlarge": 2398,
      "Ġimpro": 2399,
      "ÎµÎ¹": 2400,
      "iver": 2401,
      "ĠÙĨ": 2402,
      "Ġair": 2403,
      "class": 2404,
      "Ġìŀ¥": 2405,
      "nect": 2406,
      "_c": 2407,
      "imate": 2408,
      "IT": 2409,
      "Ġê²°": 2410,
      "Ã´": 2411,
      "Ġlight": 2412,
      "ples": 2413,
      "ëłĪ": 2414,
      "work": 2415,
      "ribut": 2416,
      "Ġíĥ": 2417,
      "ental": 2418,
      "Ġmill": 2419,
      "iá»": 2420,
      "////": 2421,
      "ively": 2422,
      "Ġnull": 2423,
      "ĠUniversity": 2424,
      "********": 2425,
      "Ġerror": 2426,
      "Ġnat": 2427,
      "ìŀĳ": 2428,
      "ìĺ¤": 2429,
      "Ġtop": 2430,
      "Ġpost": 2431,
      "ends": 2432,
      "ĠëıĻ": 2433,
      "ĠâĢĶ": 2434,
      "rem": 2435,
      "íĨµ": 2436,
      "ĠíĨµíķ´": 2437,
      "Ġmus": 2438,
      "Ġreal": 2439,
      "aving": 2440,
      "Åĳ": 2441,
      "Ġì¶Ķ": 2442,
      "Ø§Øª": 2443,
      ".set": 2444,
      "Ġstre": 2445,
      "Ġìłľê³µ": 2446,
      "ìĪł": 2447,
      "Ú¯": 2448,
      "Ġ=>": 2449,
      "def": 2450,
      "Ġbas": 2451,
      "icle": 2452,
      "Ġrun": 2453,
      "ee": 2454,
      "ĺĲ": 2455,
      "_l": 2456,
      "ems": 2457,
      "right": 2458,
      "Ġgroup": 2459,
      "ĠêµŃ": 2460,
      "Ġexpect": 2461,
      "lection": 2462,
      "cle": 2463,
      "ience": 2464,
      "ailable": 2465,
      "anguage": 2466,
      "rist": 2467,
      "comm": 2468,
      "Ġlab": 2469,
      "Ġmeas": 2470,
      "eter": 2471,
      "util": 2472,
      "Ð±": 2473,
      "Ġmaj": 2474,
      "íķĺê²Į": 2475,
      "Ġanother": 2476,
      "ĠCol": 2477,
      "\")Ċ": 2478,
      "Ġserv": 2479,
      "AN": 2480,
      "ĠAll": 2481,
      "Ġarea": 2482,
      "Ġlim": 2483,
      "Ġdisease": 2484,
      ".g": 2485,
      "ories": 2486,
      "ted": 2487,
      "ë¯¼": 2488,
      "Ġë§İ": 2489,
      "ìĭ¤": 2490,
      "Ġcult": 2491,
      "Ġcontrol": 2492,
      "ìłĲ": 2493,
      "Ġinclude": 2494,
      "Ġ%": 2495,
      "Ġcho": 2496,
      "Ġden": 2497,
      "±ħ": 2498,
      "Ġbeg": 2499,
      "rid": 2500,
      "Tr": 2501,
      "åĪ": 2502,
      "load": 2503,
      "ĳĲ": 2504,
      "ĠAmerican": 2505,
      "ëĭ¹": 2506,
      "ĠPl": 2507,
      "Ð³": 2508,
      "ST": 2509,
      "áº¿": 2510,
      "ĠØ±": 2511,
      "lete": 2512,
      "ĠëĶ°": 2513,
      "ression": 2514,
      "ë¬´": 2515,
      "Ġlaw": 2516,
      "Ġorder": 2517,
      "íı¬": 2518,
      "AL": 2519,
      "orth": 2520,
      "crib": 2521,
      "Ġwomen": 2522,
      "ÄĻ": 2523,
      "Ġhead": 2524,
      "itional": 2525,
      ".n": 2526,
      "Ġhere": 2527,
      "ological": 2528,
      "Ġess": 2529,
      "å®": 2530,
      "ì¤ĳ": 2531,
      "arc": 2532,
      "Ġcreate": 2533,
      "_f": 2534,
      "Ġrisk": 2535,
      "¶Į": 2536,
      "reg": 2537,
      "duct": 2538,
      "Ġver": 2539,
      "Ġanim": 2540,
      "ining": 2541,
      "Ġopen": 2542,
      "rite": 2543,
      "().": 2544,
      "ĠìĹĨ": 2545,
      "Î´": 2546,
      "ients": 2547,
      "ponse": 2548,
      "},Ċ": 2549,
      "Ġcal": 2550,
      "(d": 2551,
      "Ð¾Ð»": 2552,
      "ystem": 2553,
      "Ġíİ": 2554,
      "ived": 2555,
      "-c": 2556,
      "Ġeconom": 2557,
      "Ġbelie": 2558,
      "Ġtext": 2559,
      "Ġinterest": 2560,
      "ëĶ": 2561,
      "Ġopt": 2562,
      "Ġleg": 2563,
      "By": 2564,
      "Ġsay": 2565,
      "33": 2566,
      "ĠëĺĲ": 2567,
      "Ġlow": 2568,
      "ĠêµĲ": 2569,
      "-m": 2570,
      "Øµ": 2571,
      "Ġëĭ¤ìĸĳ": 2572,
      "Ø®": 2573,
      "ëį°": 2574,
      "Ġblood": 2575,
      "Ġhtt": 2576,
      "ways": 2577,
      "sw": 2578,
      "ĠØ³": 2579,
      "íĸĪëĭ¤": 2580,
      "Ġlocal": 2581,
      "ling": 2582,
      "Ġappe": 2583,
      "rag": 2584,
      "ploy": 2585,
      "ĠX": 2586,
      "Ġmove": 2587,
      "íĶĦ": 2588,
      "ĠëĮĢíķľ": 2589,
      "Get": 2590,
      "ently": 2591,
      "date": 2592,
      "íĨł": 2593,
      "ìĦĿ": 2594,
      "Object": 2595,
      ".P": 2596,
      "Ġpain": 2597,
      "Ġorig": 2598,
      "Ġsever": 2599,
      "yd": 2600,
      "['": 2601,
      "Ġpur": 2602,
      "ì²Ń": 2603,
      "inc": 2604,
      "ĠìļĶ": 2605,
      "ĠëĤ´": 2606,
      "Value": 2607,
      "Ġê¹": 2608,
      "ocus": 2609,
      "Ġì¤ĳìļĶ": 2610,
      "Ùī": 2611,
      "Ġë§¤": 2612,
      "lished": 2613,
      "obal": 2614,
      "ml": 2615,
      "Äħ": 2616,
      "Ġbetter": 2617,
      "ĠTo": 2618,
      "requ": 2619,
      "ogn": 2620,
      "Ġna": 2621,
      "Ø§Ùħ": 2622,
      "Ġbecome": 2623,
      "Ġfore": 2624,
      "Ġhome": 2625,
      "Ġrange": 2626,
      "Ġperform": 2627,
      "Ġê°ķ": 2628,
      "Ø·": 2629,
      "ills": 2630,
      "por": 2631,
      "itor": 2632,
      "cur": 2633,
      "ane": 2634,
      "Ġkeep": 2635,
      "idd": 2636,
      "ED": 2637,
      "Ñİ": 2638,
      "70": 2639,
      ".âĢĿĊ": 2640,
      "As": 2641,
      "Ġhistory": 2642,
      "ches": 2643,
      "une": 2644,
      "-t": 2645,
      "Ġgovernment": 2646,
      "Ġagainst": 2647,
      "ì²ľ": 2648,
      "ĠìĽĲ": 2649,
      "</": 2650,
      "pre": 2651,
      "Ġearly": 2652,
      "back": 2653,
      "ograph": 2654,
      "ëĵ¤ìĿ´": 2655,
      "íĭ": 2656,
      "Ġprovide": 2657,
      "ÏĨ": 2658,
      "ians": 2659,
      "ĠØ´": 2660,
      "Ġtre": 2661,
      "ĠëĨ": 2662,
      "Ã¦": 2663,
      "ÐµÑĤ": 2664,
      "Ġëĭ¨": 2665,
      "ĠÏĦÎ·": 2666,
      "Ġ*/Ċ": 2667,
      ".h": 2668,
      "For": 2669,
      "65": 2670,
      "ĠHowever": 2671,
      "ì¦Ŀ": 2672,
      "íĳľ": 2673,
      "ought": 2674,
      "Ġtoo": 2675,
      "ards": 2676,
      "Ġfalse": 2677,
      "Ġmeans": 2678,
      "Ġâ": 2679,
      "ê°ķ": 2680,
      "resent": 2681,
      ";čĊ": 2682,
      "Ð½Ð¸": 2683,
      "Ġcost": 2684,
      "Å¡": 2685,
      "ots": 2686,
      "org": 2687,
      "Ġintern": 2688,
      "ique": 2689,
      "Ġ[]": 2690,
      "Ġcr": 2691,
      "Ġfile": 2692,
      "ë°ĺ": 2693,
      "åĲ": 2694,
      "ho": 2695,
      "ì§Ģë§Į": 2696,
      "Ġview": 2697,
      "Ġsw": 2698,
      "Ġì§Ħ": 2699,
      "áº¡": 2700,
      "Î¹Î±": 2701,
      "Î¸": 2702,
      "Ġcause": 2703,
      "ä½": 2704,
      "Ġperiod": 2705,
      "198": 2706,
      "Ġpossible": 2707,
      "Ġmajor": 2708,
      "½Ķ": 2709,
      "ìķ½": 2710,
      "Ġë©": 2711,
      "ĠÐ´": 2712,
      "ĠíĶĦ": 2713,
      ".M": 2714,
      "nÃŃ": 2715,
      "Ġsecond": 2716,
      "Ġtry": 2717,
      "(m": 2718,
      "¦¬": 2719,
      "ĠíĺĦ": 2720,
      "çĶ": 2721,
      "ãģ«": 2722,
      "Col": 2723,
      "Ġparticular": 2724,
      "ÄŁ": 2725,
      "We": 2726,
      "Ġsignific": 2727,
      "Ġsaf": 2728,
      "Ġpercent": 2729,
      "ĠComm": 2730,
      "35": 2731,
      "Ī¬": 2732,
      "Ġinc": 2733,
      "bo": 2734,
      "ìĨį": 2735,
      "ised": 2736,
      "Ġì´": 2737,
      "ĠíĻľ": 2738,
      "ëŀĮ": 2739,
      "Ġfamily": 2740,
      "':": 2741,
      "Ġmean": 2742,
      "ÑĤÐ¾": 2743,
      "Ġvoid": 2744,
      "á»Ļ": 2745,
      "ÏĦÎ±": 2746,
      "Ġëĭ¤ìĸĳíķľ": 2747,
      "ë¥¸": 2748,
      "45": 2749,
      "Ġlog": 2750,
      "Ġline": 2751,
      "Ġaccess": 2752,
      "ĠWhen": 2753,
      "Ġdie": 2754,
      "Ġhig": 2755,
      "Ġlearning": 2756,
      "Ð»Ð¸": 2757,
      "An": 2758,
      "ended": 2759,
      "Ġcome": 2760,
      "|Ċ": 2761,
      "(Ċ": 2762,
      "uff": 2763,
      "Ġenc": 2764,
      "ìĭ¬": 2765,
      "ĠìĤ": 2766,
      "ĠíĽĦ": 2767,
      "ī´": 2768,
      "Ġë°©ë²ķ": 2769,
      "ĠUnited": 2770,
      "ĠUS": 2771,
      "ike": 2772,
      "uild": 2773,
      "ocument": 2774,
      "ention": 2775,
      "ìĸ´ë": 2776,
      "Ġele": 2777,
      "ware": 2778,
      "Ġinvol": 2779,
      "EC": 2780,
      "osp": 2781,
      "yl": 2782,
      "olution": 2783,
      "idence": 2784,
      "ìĦ¸ìļĶ": 2785,
      "ittle": 2786,
      "Ġrece": 2787,
      "(f": 2788,
      "ones": 2789,
      "Ġbenef": 2790,
      ".st": 2791,
      "Ġavailable": 2792,
      "Ġbus": 2793,
      "Ġseveral": 2794,
      "),Ċ": 2795,
      "Ġê³Ħ": 2796,
      "Ġsince": 2797,
      "Ġhapp": 2798,
      "ê²©": 2799,
      "Ġable": 2800,
      "Key": 2801,
      "ta": 2802,
      "Ġnear": 2803,
      "Ġprivate": 2804,
      "Ġplant": 2805,
      ".D": 2806,
      "AC": 2807,
      "90": 2808,
      "åľ": 2809,
      "ĠØ¯Ø±": 2810,
      "(),": 2811,
      "ãģĦ": 2812,
      "Ġmanag": 2813,
      "Ġspecies": 2814,
      "ĠëĦ": 2815,
      "Ġìłķë³´": 2816,
      "Ġfac": 2817,
      "ances": 2818,
      "Ġfollowing": 2819,
      "Ġìŀ¬": 2820,
      "ê°ģ": 2821,
      ".pro": 2822,
      "Ġmult": 2823,
      "####": 2824,
      "odel": 2825,
      "ache": 2826,
      "íĤ": 2827,
      "Ã©s": 2828,
      "Ġur": 2829,
      "Ġwhe": 2830,
      "(self": 2831,
      "Ġaffect": 2832,
      "ember": 2833,
      "Ġsuccess": 2834,
      "Ġproblem": 2835,
      "Ġbased": 2836,
      "aps": 2837,
      ".j": 2838,
      "ĠEn": 2839,
      "ided": 2840,
      "Ġsays": 2841,
      "Ð¾Ð¼": 2842,
      "Ġgiven": 2843,
      "Ġturn": 2844,
      "ilar": 2845,
      "ĠAd": 2846,
      "ë¥´": 2847,
      "-l": 2848,
      "Ġëį°": 2849,
      "Ġvir": 2850,
      "Ã¢": 2851,
      "Ġthings": 2852,
      "Ġscient": 2853,
      "ĠGod": 2854,
      "íĺķ": 2855,
      "action": 2856,
      "ither": 2857,
      "Ind": 2858,
      "aper": 2859,
      "aster": 2860,
      "ÑĢÐ¸": 2861,
      "Ġfr": 2862,
      "Ġrequire": 2863,
      "Ġdu": 2864,
      "Ġpolit": 2865,
      "Ġcountry": 2866,
      ".A": 2867,
      "Ġamong": 2868,
      "99": 2869,
      "If": 2870,
      "cing": 2871,
      "ourn": 2872,
      "Ġsupp": 2873,
      "indow": 2874,
      "Ġprom": 2875,
      ".N": 2876,
      "icro": 2877,
      "Ã¡s": 2878,
      "ĠCan": 2879,
      "lt": 2880,
      "ĠAt": 2881,
      "ĠOr": 2882,
      "Ġtri": 2883,
      "Ġcreat": 2884,
      "Ġprotect": 2885,
      "Ġfinal": 2886,
      "icy": 2887,
      "Request": 2888,
      "Ġareas": 2889,
      "erence": 2890,
      "ĠTe": 2891,
      "Ġfeel": 2892,
      "ê¸ī": 2893,
      "ÙĬØ©": 2894,
      "bl": 2895,
      "What": 2896,
      "opt": 2897,
      "Ġmodel": 2898,
      ".\"": 2899,
      "ava": 2900,
      "Ġíı¬": 2901,
      "¸Į": 2902,
      "Se": 2903,
      "Ġsize": 2904,
      "Ġtimes": 2905,
      "ëĤ´": 2906,
      "uture": 2907,
      "37": 2908,
      "æĺ": 2909,
      "Ġothers": 2910,
      "----------------": 2911,
      "ĠString": 2912,
      "ļ¨": 2913,
      "è¿": 2914,
      "Ġtrad": 2915,
      "ending": 2916,
      "Ġtreatment": 2917,
      "++": 2918,
      "play": 2919,
      "ëł¨": 2920,
      "Ġìłģ": 2921,
      "Ġfield": 2922,
      "Ġkh": 2923,
      "Ã£o": 2924,
      "))Ċ": 2925,
      "vious": 2926,
      "rad": 2927,
      "En": 2928,
      "(this": 2929,
      "Ġrad": 2930,
      "Ġmonth": 2931,
      "Ġë¬´": 2932,
      "Ġìŀĳ": 2933,
      ")}": 2934,
      "sk": 2935,
      "Ġput": 2936,
      "Ġprevent": 2937,
      "[]": 2938,
      "Ð½Ñĭ": 2939,
      "Ġwar": 2940,
      "[\"": 2941,
      "orld": 2942,
      "urope": 2943,
      "áº£": 2944,
      "ych": 2945,
      "ĠOn": 2946,
      "cul": 2947,
      "Ġdeterm": 2948,
      "ĠØ§ÙĦÙħ": 2949,
      "ification": 2950,
      "Ïİ": 2951,
      "Ġpath": 2952,
      "Ø§Ø¯": 2953,
      "ÙĨØ¯": 2954,
      "ĠìĦ¤": 2955,
      "Ġsam": 2956,
      "Ġê±´": 2957,
      "Ġfour": 2958,
      "Ġassoci": 2959,
      "Ġcontain": 2960,
      "ë°ľ": 2961,
      "Äį": 2962,
      "Ġyang": 2963,
      "Ġê³¼": 2964,
      "Ġlarg": 2965,
      "Ġcertain": 2966,
      "Ġexist": 2967,
      "ÑĪ": 2968,
      "empt": 2969,
      "Ġnext": 2970,
      "ably": 2971,
      "Ġnet": 2972,
      "Ġage": 2973,
      "though": 2974,
      "\":\"": 2975,
      "ĠCent": 2976,
      ",n": 2977,
      "Ġhard": 2978,
      "Ġbro": 2979,
      "Ġtak": 2980,
      "Ġpress": 2981,
      "ĠStates": 2982,
      "Ġcir": 2983,
      "ÙĪØ±": 2984,
      "ĠìľĦíķ´": 2985,
      "urther": 2986,
      "Ġmar": 2987,
      "Ġ},Ċ": 2988,
      "sel": 2989,
      "Ġapplic": 2990,
      "ĠBl": 2991,
      "Ġarg": 2992,
      "Ġparent": 2993,
      "ĠíķĦìļĶ": 2994,
      "Ãº": 2995,
      "Ã¸": 2996,
      "RE": 2997,
      "Ġë°°": 2998,
      "stit": 2999,
      "Ġamount": 3000,
      "Ð¾Ð´": 3001,
      "ormal": 3002,
      "Ġresults": 3003,
      "Ġlanguage": 3004,
      "Ġnatural": 3005,
      "ĠÙħÙĨ": 3006,
      "ured": 3007,
      "Å¼": 3008,
      "Ð½Ð¾": 3009,
      "LE": 3010,
      "ìĹĪ": 3011,
      "ĠAf": 3012,
      "],Ċ": 3013,
      "Ġíķł": 3014,
      "ament": 3015,
      "ĉp": 3016,
      "ĠÐ¼": 3017,
      "Ġindust": 3018,
      "ãĤĭ": 3019,
      "Ġë°ĺ": 3020,
      "={": 3021,
      "ators": 3022,
      "ref": 3023,
      ".C": 3024,
      "Ġdue": 3025,
      "ê±´": 3026,
      "ĠÙĬ": 3027,
      "Ġfree": 3028,
      "Ġinvest": 3029,
      "ÙĲ": 3030,
      "ëª¨": 3031,
      "mp": 3032,
      "ersion": 3033,
      "Ġimpact": 3034,
      "ables": 3035,
      "ister": 3036,
      "Ġevent": 3037,
      "ĠÎ´": 3038,
      "Ġê±°": 3039,
      "íķ©": 3040,
      "Ġspecific": 3041,
      "ÑĨ": 3042,
      "Ġê°Ļ": 3043,
      "Ġda": 3044,
      "ĠSo": 3045,
      "Ġshort": 3046,
      ",t": 3047,
      "ÑĤÐµ": 3048,
      "ka": 3049,
      "ãģ¨": 3050,
      "Ġlevels": 3051,
      "ìļ¸": 3052,
      "umn": 3053,
      "ours": 3054,
      "atory": 3055,
      "Ġproblems": 3056,
      "Ð¶": 3057,
      "ĠëĲĺ": 3058,
      "ething": 3059,
      "ì¢": 3060,
      "bre": 3061,
      "icult": 3062,
      "ume": 3063,
      "íĻĺ": 3064,
      "Ġprim": 3065,
      "Ġinit": 3066,
      "Ġcomput": 3067,
      "Ġsignificant": 3068,
      "Int": 3069,
      "34": 3070,
      "Ġìĥ": 3071,
      "[i": 3072,
      "IS": 3073,
      "test": 3074,
      ".T": 3075,
      "Ġsing": 3076,
      "Ġvan": 3077,
      "Ġë°Ľ": 3078,
      "ÛĮÙĨ": 3079,
      "ĠÐ½Ð°": 3080,
      "export": 3081,
      "Ġlittle": 3082,
      "36": 3083,
      "Ġcomb": 3084,
      "Ġge": 3085,
      "ĠÙģÙĬ": 3086,
      "Ġil": 3087,
      "param": 3088,
      "ift": 3089,
      "Ġrecord": 3090,
      "Ġfocus": 3091,
      "ì§Ī": 3092,
      "Ð¾Ð³": 3093,
      "ĠMed": 3094,
      "Ġflow": 3095,
      "Ġret": 3096,
      "aces": 3097,
      "place": 3098,
      "Ġvi": 3099,
      "Ġê²Į": 3100,
      "Ġcells": 3101,
      "ope": 3102,
      "75": 3103,
      "ĠNational": 3104,
      "eral": 3105,
      "38": 3106,
      "ĠWhat": 3107,
      "æĸ": 3108,
      "ession": 3109,
      "ohn": 3110,
      "ĠBe": 3111,
      "Ġsugg": 3112,
      "ilt": 3113,
      "idth": 3114,
      "Ġsal": 3115,
      "ream": 3116,
      "Ġlater": 3117,
      "Ġë³Ģ": 3118,
      "ëĵł": 3119,
      "Set": 3120,
      "zy": 3121,
      "acy": 3122,
      "Ġì¢ĭ": 3123,
      "ìĹĲëĬĶ": 3124,
      "\\\"": 3125,
      "ĠìłĢ": 3126,
      "ìĿ´ëĭ¤": 3127,
      ".w": 3128,
      "Ġmot": 3129,
      "Ġsuggest": 3130,
      "-p": 3131,
      "197": 3132,
      "Ġyoung": 3133,
      "Config": 3134,
      "Ġconsider": 3135,
      "!Ċ": 3136,
      "04": 3137,
      "Al": 3138,
      "Ġmaking": 3139,
      "Ġstat": 3140,
      "leg": 3141,
      "Ġdan": 3142,
      "ÏĦÎ¿": 3143,
      "Ġuntil": 3144,
      "htt": 3145,
      "Ġaz": 3146,
      "ĠEurope": 3147,
      "At": 3148,
      "Ġpub": 3149,
      "\");Ċ": 3150,
      "ĠChrist": 3151,
      "oot": 3152,
      "ìħĺ": 3153,
      "ored": 3154,
      "isc": 3155,
      "rict": 3156,
      "iet": 3157,
      "Ã¤r": 3158,
      "new": 3159,
      "kt": 3160,
      "earch": 3161,
      "ysis": 3162,
      "Im": 3163,
      "ledge": 3164,
      "ĠíļĮ": 3165,
      "ched": 3166,
      "order": 3167,
      "Ġbehav": 3168,
      "ands": 3169,
      "la": 3170,
      "lease": 3171,
      "ãģĹ": 3172,
      "\\u": 3173,
      "ene": 3174,
      "Ġauthor": 3175,
      "mt": 3176,
      "lar": 3177,
      "Info": 3178,
      "(c": 3179,
      "lam": 3180,
      "Ġaf": 3181,
      "Ġê²½ìļ°": 3182,
      "rel": 3183,
      "Ġeducation": 3184,
      "ê¶Į": 3185,
      "Ġdays": 3186,
      "ado": 3187,
      "Ġsz": 3188,
      "Ġê°Ĳ": 3189,
      "Ġëħ¸": 3190,
      "ãģŁ": 3191,
      "íķ´ìķ¼": 3192,
      "ctor": 3193,
      "Ġclear": 3194,
      "Ġdr": 3195,
      "ication": 3196,
      "edi": 3197,
      "Ġíķ©ëĭĪëĭ¤": 3198,
      "Ġpotential": 3199,
      "Ġpast": 3200,
      "Ġtot": 3201,
      "((": 3202,
      "itle": 3203,
      "Ġ&&": 3204,
      "ãģ¯": 3205,
      "ÏĦÎµ": 3206,
      "ruction": 3207,
      "Ġje": 3208,
      "ĠìĤ¬ëŀĮ": 3209,
      "ison": 3210,
      "State": 3211,
      "ĠØ¨Ùĩ": 3212,
      "Ġsystems": 3213,
      "ëĶĶ": 3214,
      "ì²ĺ": 3215,
      "oph": 3216,
      "Ġleft": 3217,
      "Ġsource": 3218,
      "åĽ": 3219,
      "Ġfar": 3220,
      "Ġlikely": 3221,
      "Ġcourse": 3222,
      "**Ċ": 3223,
      "ising": 3224,
      "Ġheart": 3225,
      "Ġmind": 3226,
      "etic": 3227,
      "Ġconditions": 3228,
      "Ġë§Ĳ": 3229,
      "ĠCont": 3230,
      "umber": 3231,
      ".length": 3232,
      "ì¤Ģ": 3233,
      "ae": 3234,
      "ĉc": 3235,
      "roups": 3236,
      "Ġalong": 3237,
      "Context": 3238,
      "kan": 3239,
      "Ġ\"\"": 3240,
      "31": 3241,
      "asing": 3242,
      "cript": 3243,
      "Ġalways": 3244,
      "enc": 3245,
      "Ġsomething": 3246,
      "Ġword": 3247,
      ".e": 3248,
      "Ġdescrib": 3249,
      "Ġter": 3250,
      "ĠìĦłíĥĿ": 3251,
      "Ġcharacter": 3252,
      "Ġcrit": 3253,
      "Ġcommunity": 3254,
      "Ġspace": 3255,
      "Ġincrease": 3256,
      "Ġë¶Ī": 3257,
      "Ġstatic": 3258,
      ".F": 3259,
      "ready": 3260,
      "ÏģÎ¿": 3261,
      "Ġid": 3262,
      "br": 3263,
      "ê·¼": 3264,
      "Ġprint": 3265,
      "tes": 3266,
      "Ġtemper": 3267,
      "Ġaccount": 3268,
      "Ġcontent": 3269,
      "ency": 3270,
      "Ġdig": 3271,
      "ê²°": 3272,
      "uments": 3273,
      "Time": 3274,
      "ird": 3275,
      "Ġport": 3276,
      "Ġnecess": 3277,
      "ê»": 3278,
      "Ġtechnology": 3279,
      "íĸ¥": 3280,
      "Ġworks": 3281,
      "ê°Ĳ": 3282,
      "ãĢĤĊ": 3283,
      "Ġteac": 3284,
      "Par": 3285,
      "On": 3286,
      "ĢìĿ´": 3287,
      "ãĤĴ": 3288,
      "Ġbegin": 3289,
      "Ġtypes": 3290,
      "·¨": 3291,
      "ìľ¡": 3292,
      "ãģ¦": 3293,
      "ban": 3294,
      "acc": 3295,
      "alf": 3296,
      "With": 3297,
      "01": 3298,
      "æĹ": 3299,
      "ences": 3300,
      "Ġdeath": 3301,
      "ĠLe": 3302,
      "AM": 3303,
      "Ġì°¨": 3304,
      "Ġgive": 3305,
      "ë¥ĺ": 3306,
      "ãģ§": 3307,
      "á»ĳ": 3308,
      "Ġsum": 3309,
      "Ġill": 3310,
      "Ġdom": 3311,
      "Ġmov": 3312,
      "Ġspecial": 3313,
      "Ġneeds": 3314,
      "Ġíģ": 3315,
      "Ġwords": 3316,
      "ë°Ķ": 3317,
      "ued": 3318,
      "Ġíļ¨": 3319,
      "Ġuser": 3320,
      "ë§¤": 3321,
      "ociety": 3322,
      "ET": 3323,
      "aim": 3324,
      "istic": 3325,
      "íķľëĭ¤": 3326,
      "Ġfuture": 3327,
      "Ġabove": 3328,
      "áº¥": 3329,
      "aring": 3330,
      "íĸĪ": 3331,
      "Ġsimilar": 3332,
      "Ġê¸Ī": 3333,
      "Ä±n": 3334,
      "Ġfull": 3335,
      "atures": 3336,
      "Ġrespons": 3337,
      "íķ¨": 3338,
      "Ġkind": 3339,
      "Ġchanges": 3340,
      "ĠëĨĴ": 3341,
      "ÏĢÎ¿": 3342,
      "Ġdifficult": 3343,
      "íĭ°": 3344,
      "ĠíĮĮ": 3345,
      "oken": 3346,
      "Ġresponse": 3347,
      "Ġann": 3348,
      "´ĳ": 3349,
      "lected": 3350,
      "Ġexperience": 3351,
      "enn": 3352,
      "icense": 3353,
      "Ġtool": 3354,
      "39": 3355,
      "Ġstep": 3356,
      "Ð½Ð°": 3357,
      "Ġusually": 3358,
      "amb": 3359,
      "pecially": 3360,
      "But": 3361,
      "Ġmillion": 3362,
      "Ġdiscuss": 3363,
      "Ġdat": 3364,
      "ening": 3365,
      "Ġtoday": 3366,
      "Ġsens": 3367,
      "ustom": 3368,
      "Ø°": 3369,
      "ì§ģ": 3370,
      "Ġpopulation": 3371,
      "uation": 3372,
      "æĪ": 3373,
      "ils": 3374,
      "Ġcancer": 3375,
      "Ġog": 3376,
      "fer": 3377,
      "ĠìľĦíķľ": 3378,
      "ëħ¸": 3379,
      "ĠSci": 3380,
      "ĠAb": 3381,
      "osed": 3382,
      "ĠíĻĺ": 3383,
      "ilities": 3384,
      "ìĦ¤": 3385,
      "Ġsuper": 3386,
      "Ġrequired": 3387,
      "Ø¶": 3388,
      "Ġwhy": 3389,
      "ĠìĿ´ëŁ": 3390,
      "rodu": 3391,
      "ĠÐ±": 3392,
      "ivity": 3393,
      "Ġvarious": 3394,
      "my": 3395,
      "íķĺë©´": 3396,
      "ÙĪØ¯": 3397,
      "Ġhigher": 3398,
      "ÏģÎ±": 3399,
      "ley": 3400,
      "serv": 3401,
      "Ġey": 3402,
      "ires": 3403,
      "Ġfail": 3404,
      "(b": 3405,
      "print": 3406,
      "Qu": 3407,
      "05": 3408,
      "ara": 3409,
      "bol": 3410,
      "Ġacross": 3411,
      "Ġleast": 3412,
      "Ġsi": 3413,
      "Response": 3414,
      "Ġbusiness": 3415,
      "48": 3416,
      "ules": 3417,
      "Ð¾Ð¹": 3418,
      "There": 3419,
      "log": 3420,
      "Ġíķ¨": 3421,
      "ĠØŃ": 3422,
      "íĮĮ": 3423,
      "Ġestab": 3424,
      "ìĥ": 3425,
      "Ãªn": 3426,
      "Ġask": 3427,
      "196": 3428,
      "ì§ĳ": 3429,
      "oney": 3430,
      "Ġneg": 3431,
      "ĠÎºÎ±Î¹": 3432,
      "Ġoccur": 3433,
      "ĠíĻķìĿ¸": 3434,
      ");čĊ": 3435,
      "ë¡ł": 3436,
      "(p": 3437,
      "Å¯": 3438,
      "Ġcountries": 3439,
      "ë³¸": 3440,
      "Ġrepresent": 3441,
      "Ġstrong": 3442,
      "most": 3443,
      "ÑģÐº": 3444,
      "ĠíĶ¼": 3445,
      "ì¸ł": 3446,
      "oor": 3447,
      "Ġdam": 3448,
      "How": 3449,
      "========": 3450,
      "ĠÏĦÎ¿": 3451,
      "ÐµÐ½Ð¸": 3452,
      "ĠíķĻ": 3453,
      "ĠAfric": 3454,
      "Ġworking": 3455,
      "ites": 3456,
      "ump": 3457,
      "Ġdest": 3458,
      "ĠëĶ°ëĿ¼": 3459,
      "lev": 3460,
      "Ġside": 3461,
      "ä¸Ģ": 3462,
      "Ġtoget": 3463,
      "eren": 3464,
      "ĠÏĦÎ¿Ïħ": 3465,
      "aves": 3466,
      "Ġtogether": 3467,
      "Ġbreak": 3468,
      "Ġcheck": 3469,
      "ë³Ħ": 3470,
      "ÙĪÙĦ": 3471,
      "ptoms": 3472,
      "ĠÎ½": 3473,
      "_id": 3474,
      "ÏĦÎ·": 3475,
      "ights": 3476,
      "cription": 3477,
      "Ġconnect": 3478,
      "Ã¡t": 3479,
      "nder": 3480,
      "Ġnever": 3481,
      "word": 3482,
      "Ġconsum": 3483,
      "Ġbrain": 3484,
      "eds": 3485,
      "Ġrole": 3486,
      "raft": 3487,
      "Ġhowever": 3488,
      "Ġimprove": 3489,
      "Ġsubject": 3490,
      "Ġconc": 3491,
      "mon": 3492,
      "(){": 3493,
      "ì¢ħ": 3494,
      "'Ċ": 3495,
      "Sh": 3496,
      "ving": 3497,
      "urch": 3498,
      "å°": 3499,
      ".add": 3500,
      "Ġgeneral": 3501,
      "íĽĦ": 3502,
      "thing": 3503,
      "Ġcentury": 3504,
      "===": 3505,
      "Ġë¹": 3506,
      "ĠĠĊ": 3507,
      "ÙĪÙĨ": 3508,
      "íķŃ": 3509,
      "ibility": 3510,
      "Ġpatients": 3511,
      "RO": 3512,
      "Ð»Ð°": 3513,
      "Ġeffects": 3514,
      "Text": 3515,
      "ÙĬÙĨ": 3516,
      "ī´ìĬ¤": 3517,
      "oad": 3518,
      "Ã¡n": 3519,
      "rect": 3520,
      "from": 3521,
      "Ġeither": 3522,
      "Ġwhether": 3523,
      "ÑĤÑĮ": 3524,
      "za": 3525,
      "ĠØ®": 3526,
      "ĠBrit": 3527,
      "Ġdeg": 3528,
      "iment": 3529,
      "Ġcontext": 3530,
      "ĠAss": 3531,
      "Ġhar": 3532,
      "Ġì¦Ŀ": 3533,
      "ĠìĹŃ": 3534,
      "Ġpred": 3535,
      "ipp": 3536,
      "ken": 3537,
      "Ġindic": 3538,
      "ips": 3539,
      "ION": 3540,
      "ato": 3541,
      "Ùı": 3542,
      "ê¹Įì§Ģ": 3543,
      "Ġì¹´": 3544,
      "á»§": 3545,
      "uration": 3546,
      "Ġaddress": 3547,
      "Ġê°ĢëĬ¥": 3548,
      "void": 3549,
      "Ġplants": 3550,
      "hem": 3551,
      "Ġì»": 3552,
      "Ġthought": 3553,
      "ĠPol": 3554,
      "iple": 3555,
      "44": 3556,
      "Ġaway": 3557,
      "stance": 3558,
      "way": 3559,
      "Ġinflu": 3560,
      "Ġorg": 3561,
      "ĠEnglish": 3562,
      "Ġ,": 3563,
      "Ġoch": 3564,
      "ãģĮ": 3565,
      "âĢĻre": 3566,
      "Ġenough": 3567,
      "ê»ĺ": 3568,
      ",e": 3569,
      "Ġcy": 3570,
      "Ġcases": 3571,
      "Ġens": 3572,
      "ìľ¼ë©°": 3573,
      "Ġom": 3574,
      "selves": 3575,
      "Ġways": 3576,
      "ender": 3577,
      "ĠIm": 3578,
      "ë¹ĦìĬ¤": 3579,
      "ude": 3580,
      "Ġrelations": 3581,
      "now": 3582,
      "index": 3583,
      "Ġchem": 3584,
      "ĠJohn": 3585,
      "Ġng": 3586,
      "aching": 3587,
      "ÐµÑĢ": 3588,
      "Ġalready": 3589,
      "Ġeff": 3590,
      "hern": 3591,
      "Service": 3592,
      "ales": 3593,
      "Ġcolor": 3594,
      "ĠAm": 3595,
      "Ġëª©": 3596,
      ".\"Ċ": 3597,
      "ĠÙĤ": 3598,
      "ĠEar": 3599,
      "ìłĢ": 3600,
      "ÅĽ": 3601,
      "het": 3602,
      "side": 3603,
      "Ġstudies": 3604,
      "chie": 3605,
      "ĠIntern": 3606,
      ".R": 3607,
      "Ġlower": 3608,
      "ĠMan": 3609,
      "Ġgoing": 3610,
      "Ġdone": 3611,
      "ĠíĶĦë¡ľ": 3612,
      "ĠëĬ": 3613,
      "Ġespecially": 3614,
      "Ġfund": 3615,
      "UR": 3616,
      "Ġê¸Ģ": 3617,
      "ties": 3618,
      "Ġsent": 3619,
      "Ġìĸ´ëĸ": 3620,
      "ribute": 3621,
      "irm": 3622,
      "Ġtarget": 3623,
      "Ġabs": 3624,
      "ackage": 3625,
      "ana": 3626,
      "Ġê¹Ģ": 3627,
      "Ġquestion": 3628,
      "ãģª": 3629,
      "off": 3630,
      "ibr": 3631,
      "íĥľ": 3632,
      "ĠPr": 3633,
      "Index": 3634,
      "oman": 3635,
      "Î¼Î±": 3636,
      "Wh": 3637,
      "ĠBy": 3638,
      "ĠíĪ¬": 3639,
      "Ġhaving": 3640,
      "66": 3641,
      "mit": 3642,
      "Ġson": 3643,
      "Ġpay": 3644,
      "que": 3645,
      "ĠìĪ": 3646,
      "194": 3647,
      "AP": 3648,
      "apt": 3649,
      "ields": 3650,
      "Ġbig": 3651,
      "íĤ¤": 3652,
      "(a": 3653,
      "rs": 3654,
      "ades": 3655,
      "bon": 3656,
      "../": 3657,
      "Ġred": 3658,
      "Ġreason": 3659,
      "json": 3660,
      "user": 3661,
      "error": 3662,
      "ĠQu": 3663,
      "Ġìŀħ": 3664,
      "ĠìĿ´ìļ©": 3665,
      "Ġmo": 3666,
      "ĠWorld": 3667,
      "Ġlay": 3668,
      "null": 3669,
      "Ġsure": 3670,
      "Ġhttp": 3671,
      "Ġproduction": 3672,
      "ĠìĨ": 3673,
      "ĠvÃł": 3674,
      "create": 3675,
      "Ġresearc": 3676,
      "ĠWith": 3677,
      "']": 3678,
      "78": 3679,
      "epend": 3680,
      "amin": 3681,
      "55": 3682,
      "íĻľ": 3683,
      "ì±ħ": 3684,
      "Ġknowledge": 3685,
      "bi": 3686,
      "Path": 3687,
      "Ġdru": 3688,
      "ÑĤÐ°": 3689,
      "_C": 3690,
      ".org": 3691,
      "02": 3692,
      "Of": 3693,
      "Ġphysical": 3694,
      "ls": 3695,
      "ì¼": 3696,
      "File": 3697,
      "ĠGe": 3698,
      "åĬ": 3699,
      "ĠHealth": 3700,
      "Ġtyp": 3701,
      "atter": 3702,
      "Ð»ÑĮ": 3703,
      "ili": 3704,
      "head": 3705,
      "Ġles": 3706,
      "ails": 3707,
      "Ġfall": 3708,
      "Ġrights": 3709,
      "Ġmakes": 3710,
      "www": 3711,
      "íĮħ": 3712,
      "ste": 3713,
      "ĠÎ¿": 3714,
      "ä¹": 3715,
      "De": 3716,
      "Ã¬": 3717,
      "Ġsoft": 3718,
      "Ġchall": 3719,
      "Ġsingle": 3720,
      "Pl": 3721,
      "Ġloss": 3722,
      "Ġfurther": 3723,
      "Ã¨": 3724,
      "åŃ": 3725,
      "ogle": 3726,
      "ags": 3727,
      "ises": 3728,
      "Ġgra": 3729,
      "itch": 3730,
      "ĠGerm": 3731,
      "ĠOne": 3732,
      "Ã³n": 3733,
      "Ġcity": 3734,
      "ground": 3735,
      "mber": 3736,
      "Ġground": 3737,
      "ya": 3738,
      "Ġhouse": 3739,
      "Ġëĭ¹": 3740,
      "{\"": 3741,
      "Ġresources": 3742,
      "Ġparticip": 3743,
      "Ġscience": 3744,
      "leep": 3745,
      "Î½Î±": 3746,
      "Ġglobal": 3747,
      "Ġmass": 3748,
      "omet": 3749,
      "Ġgroups": 3750,
      "Map": 3751,
      "ager": 3752,
      "ained": 3753,
      "abel": 3754,
      "Event": 3755,
      "Ġnut": 3756,
      "View": 3757,
      "Ġaction": 3758,
      "otype": 3759,
      "Ġactivity": 3760,
      "Ġsite": 3761,
      "íĺĦ": 3762,
      "Ġrequest": 3763,
      "ĠSc": 3764,
      "Ø£": 3765,
      "Ġcreated": 3766,
      "ux": 3767,
      "api": 3768,
      "All": 3769,
      "_b": 3770,
      "Ag": 3771,
      "Ġemploy": 3772,
      "Test": 3773,
      "ĠSome": 3774,
      "Ġhab": 3775,
      "ĠCal": 3776,
      "len": 3777,
      "ĠÃł": 3778,
      "Ġsymptoms": 3779,
      "Ġlot": 3780,
      "Ġpaper": 3781,
      "OT": 3782,
      "den": 3783,
      "UT": 3784,
      "osis": 3785,
      "ëĵ¤ìĿĢ": 3786,
      "sych": 3787,
      "ried": 3788,
      "Ġbecame": 3789,
      "´ëı": 3790,
      "74": 3791,
      "ÙĴ": 3792,
      "Î¯Î±": 3793,
      "Ġgrowth": 3794,
      "Ġbr": 3795,
      "å¹": 3796,
      "uj": 3797,
      "plement": 3798,
      "Class": 3799,
      "Ġstory": 3800,
      "ounds": 3801,
      "Ġoffic": 3802,
      "Ġquality": 3803,
      "Node": 3804,
      "Ġbelow": 3805,
      "Or": 3806,
      "ĠpÃ¥": 3807,
      "=function": 3808,
      "ĠWar": 3809,
      "Ġobserv": 3810,
      "ìĤ¬ìĿ´íĬ¸": 3811,
      "ë²Ħ": 3812,
      "Ġtoward": 3813,
      "ÙĩØ§": 3814,
      "Ġreally": 3815,
      "Ġì§ģ": 3816,
      "));Ċ": 3817,
      "Ġseen": 3818,
      "Ġservice": 3819,
      "ĠCar": 3820,
      "init": 3821,
      "ĠØ¢": 3822,
      "';Ċ": 3823,
      "AD": 3824,
      "vert": 3825,
      "Exception": 3826,
      "Ġ<<": 3827,
      "Ġconsid": 3828,
      "He": 3829,
      "Out": 3830,
      "ë³µ": 3831,
      "Ġassert": 3832,
      "ìĹĪëĭ¤": 3833,
      "Ġë§İìĿĢ": 3834,
      "ension": 3835,
      "Ġactivities": 3836,
      "Ġtotal": 3837,
      "Ġproducts": 3838,
      "Ġrate": 3839,
      "Ġhistor": 3840,
      "ino": 3841,
      "uel": 3842,
      "ëŁī": 3843,
      "Ġìļ°ë¦¬": 3844,
      "ĠThat": 3845,
      "Ġimage": 3846,
      "±Ħ": 3847,
      "ÏĥÎ·": 3848,
      "_S": 3849,
      "qual": 3850,
      "ĠíķľêµŃ": 3851,
      "ores": 3852,
      "Ġì¹ĺ": 3853,
      "Ġprob": 3854,
      "Ġaccording": 3855,
      "´ë³": 3856,
      "time": 3857,
      "ges": 3858,
      "ÙĦÙī": 3859,
      "ìĨ": 3860,
      "efault": 3861,
      "Ġê°ľìĿ¸": 3862,
      "Ġansw": 3863,
      "Ġë¡": 3864,
      ".is": 3865,
      "ĠĠĠĊ": 3866,
      "lig": 3867,
      "Ġaddition": 3868,
      "Is": 3869,
      "ha": 3870,
      "ournal": 3871,
      "Ġteam": 3872,
      "Ġphot": 3873,
      "ĠØ¬": 3874,
      "Ġjob": 3875,
      "Ġri": 3876,
      "\"]": 3877,
      "Add": 3878,
      "Ġwriting": 3879,
      "Ġnational": 3880,
      "ìĿ´ëĿ¼": 3881,
      "ĠØ¥": 3882,
      "ivil": 3883,
      "data": 3884,
      "`Ċ": 3885,
      "Ġëĵ¤": 3886,
      "ĠMay": 3887,
      "ui": 3888,
      "inary": 3889,
      "ĠìĥĪ": 3890,
      "69": 3891,
      ".B": 3892,
      "clus": 3893,
      "overed": 3894,
      "68": 3895,
      "ocal": 3896,
      "ouble": 3897,
      "Ã¡l": 3898,
      "Ġreduce": 3899,
      "ì¡±": 3900,
      "Ġarticle": 3901,
      "ĠPar": 3902,
      "Element": 3903,
      "uth": 3904,
      "ened": 3905,
      "Des": 3906,
      "Ġì°¸": 3907,
      "hold": 3908,
      "-g": 3909,
      "oud": 3910,
      "Ġrecogn": 3911,
      "Ġonce": 3912,
      "Ġachie": 3913,
      "ica": 3914,
      "Ø«": 3915,
      "-w": 3916,
      "Ġë¦¬": 3917,
      "è¯": 3918,
      "Ġrather": 3919,
      "oin": 3920,
      "sequ": 3921,
      "Ġ__": 3922,
      "Ġlink": 3923,
      "n't": 3924,
      "ĠStud": 3925,
      "ponent": 3926,
      "When": 3927,
      "kn": 3928,
      "portun": 3929,
      "Ġut": 3930,
      "ë¶ĢíĦ°": 3931,
      "ĠìŀĪìĸ´": 3932,
      "Ġíİ¸": 3933,
      "uy": 3934,
      "Ø§Ø¨": 3935,
      "Ġassociated": 3936,
      "Ġcover": 3937,
      "_n": 3938,
      "ĠMar": 3939,
      "iting": 3940,
      "æĺ¯": 3941,
      "ìĹĲìĦľëĬĶ": 3942,
      "íķĺë©°": 3943,
      "ãĥ¼": 3944,
      "Ġdeveloped": 3945,
      "Ġìĺ¨": 3946,
      "ĠShe": 3947,
      "Ġblack": 3948,
      "Up": 3949,
      "Ġclimate": 3950,
      "Ġlive": 3951,
      "clude": 3952,
      "ged": 3953,
      "Array": 3954,
      "Ġeffort": 3955,
      "Ġos": 3956,
      "Ġsurface": 3957,
      "fficient": 3958,
      "ideo": 3959,
      "Ġì¶ľ": 3960,
      "Ġê°Ħ": 3961,
      "men": 3962,
      "iction": 3963,
      "Ġrelig": 3964,
      "Ġcannot": 3965,
      "ĠGet": 3966,
      "Ġmarket": 3967,
      "Ġcirc": 3968,
      "Ġhom": 3969,
      "illed": 3970,
      "Ġ--": 3971,
      "Ġfrequ": 3972,
      "Ġissues": 3973,
      "Ġbuilding": 3974,
      "chan": 3975,
      "ĠÑ": 3976,
      "ì´": 3977,
      "ĠÑĩ": 3978,
      "config": 3979,
      "Ġfri": 3980,
      "Ġskills": 3981,
      "pace": 3982,
      "Ùĳ": 3983,
      "iles": 3984,
      "Ġquestions": 3985,
      "iddle": 3986,
      "ĠìĦľë¹ĦìĬ¤": 3987,
      "Ġfarm": 3988,
      "ÏīÎ½": 3989,
      "ĠInt": 3990,
      "ĠĠĠĠĊ": 3991,
      "Ġsat": 3992,
      "Ġê´Ģë¦¬": 3993,
      "Ġbar": 3994,
      "¬íķľ": 3995,
      "ĠSouth": 3996,
      "Ġposition": 3997,
      "Ġpri": 3998,
      "ëĤľ": 3999,
      "Ġrecomm": 4000,
      "Ġcomplet": 4001,
      "ĠNo": 4002,
      "ults": 4003,
      "Ġê²Ģ": 4004,
      "Ġmor": 4005,
      "ĠÄĳá»": 4006,
      "ternal": 4007,
      "Ġcut": 4008,
      "Ġfive": 4009,
      "08": 4010,
      "95": 4011,
      "OD": 4012,
      "Ġ||": 4013,
      "Ġmedical": 4014,
      "Ġmembers": 4015,
      "')Ċ": 4016,
      "ese": 4017,
      "ìłĪ": 4018,
      "Ġtaken": 4019,
      "Ġë²ķ": 4020,
      "utions": 4021,
      "Over": 4022,
      "Ġmeet": 4023,
      "Ñī": 4024,
      "Ġsun": 4025,
      "Ġthough": 4026,
      "\".": 4027,
      "ama": 4028,
      "ê¸Ģ": 4029,
      "Ð²Ð°": 4030,
      "oz": 4031,
      "Ġnature": 4032,
      "ster": 4033,
      "Ġsimple": 4034,
      "Ġê±´ê°ķ": 4035,
      "perty": 4036,
      "_name": 4037,
      "assert": 4038,
      "ĠíĶĮ": 4039,
      "odes": 4040,
      "Ġmax": 4041,
      "Ġwhole": 4042,
      "elling": 4043,
      ".L": 4044,
      ".re": 4045,
      "ëįĺ": 4046,
      "ĠÃ©s": 4047,
      "ãģĻ": 4048,
      "ĠAmerica": 4049,
      "ĠNorth": 4050,
      "ÑĢÐ¾": 4051,
      "ops": 4052,
      "ĺìĿ´": 4053,
      "äºº": 4054,
      "ober": 4055,
      "='": 4056,
      "ìĽĮ": 4057,
      "verage": 4058,
      "Ġbring": 4059,
      "hal": 4060,
      "Ġexpos": 4061,
      "Ġevidence": 4062,
      "Ġupon": 4063,
      "Ġpage": 4064,
      "ging": 4065,
      "Ġresearchers": 4066,
      "mb": 4067,
      "Ġwhite": 4068,
      "Ã¡c": 4069,
      "Ġweek": 4070,
      "ĠÐ½Ðµ": 4071,
      "Ġce": 4072,
      "Ġë¨": 4073,
      "ç»": 4074,
      "Ġattack": 4075,
      "ĠíĿ": 4076,
      "uck": 4077,
      "eed": 4078,
      "ìĺĢ": 4079,
      "ìĿ´ëĤĺ": 4080,
      "íĶ¼": 4081,
      "col": 4082,
      "aced": 4083,
      "ĠÎ½Î±": 4084,
      "Ġë§ŀ": 4085,
      "¸Ķ": 4086,
      "artment": 4087,
      "Ġstates": 4088,
      "ĠìķĪìłĦ": 4089,
      "ĠÎ³": 4090,
      "ĠìłĲ": 4091,
      "ë£¨": 4092,
      "Ġdefault": 4093,
      "Ġconsidered": 4094,
      "Ġcompon": 4095,
      "Ġintrodu": 4096,
      "Ġì¢ħ": 4097,
      "Ġengine": 4098,
      "olean": 4099,
      "íĶĮ": 4100,
      "ĠÙĥ": 4101,
      "¤Ħ": 4102,
      "Ġprote": 4103,
      "Ġdocument": 4104,
      "oper": 4105,
      "Ġvá»": 4106,
      "iding": 4107,
      "čĊčĊ": 4108,
      "Ġíķ¨ê»ĺ": 4109,
      "ĠDes": 4110,
      "Ġrelated": 4111,
      "Ġmap": 4112,
      "Ġliter": 4113,
      "Val": 4114,
      "ì¹´": 4115,
      "Ġexc": 4116,
      "Ã´ng": 4117,
      "div": 4118,
      "ĠDr": 4119,
      "Ġpressure": 4120,
      "Ġì²Ń": 4121,
      "Ġê´Ģëł¨": 4122,
      "ĠØ§Ø²": 4123,
      "Ġneeded": 4124,
      "rows": 4125,
      "vere": 4126,
      "åį": 4127,
      "ÑģÑı": 4128,
      "´ëĵ": 4129,
      "ë¸Į": 4130,
      "ĠlÃł": 4131,
      "Ġvalues": 4132,
      "Ġstress": 4133,
      "Ġmicro": 4134,
      "Ġanalysis": 4135,
      "Ġincreased": 4136,
      "Ġstudent": 4137,
      "\\n": 4138,
      "plied": 4139,
      "NA": 4140,
      "ett": 4141,
      "ico": 4142,
      "Ġë¬¼": 4143,
      "rc": 4144,
      "Ġíıī": 4145,
      "reed": 4146,
      "QU": 4147,
      "Ġmodern": 4148,
      "09": 4149,
      "ĉt": 4150,
      "And": 4151,
      "Ġactually": 4152,
      "Client": 4153,
      "ê°Ŀ": 4154,
      "Ġcame": 4155,
      "Ġconcept": 4156,
      "User": 4157,
      "Ġber": 4158,
      "rown": 4159,
      "ëŁ¼": 4160,
      "Ġservices": 4161,
      "ëŀĢ": 4162,
      "vis": 4163,
      "oles": 4164,
      "Ġdecl": 4165,
      "Ġcomplex": 4166,
      "ĠDo": 4167,
      "ê²ł": 4168,
      "Ġopportun": 4169,
      "Ġthemselves": 4170,
      "ÑĤÐ¸": 4171,
      "era": 4172,
      "}ĊĊ//": 4173,
      "Ġpolitical": 4174,
      "Ġflu": 4175,
      "pose": 4176,
      "Ġskin": 4177,
      "Ġconcern": 4178,
      "Ġliving": 4179,
      "Ġeffective": 4180,
      "Ġfat": 4181,
      "ĠÐ·": 4182,
      "ĠAct": 4183,
      "ĠAust": 4184,
      "ì¦Ī": 4185,
      "ĠëĺĲíķľ": 4186,
      "ĠYork": 4187,
      "Ġunderstanding": 4188,
      "iá»ĩ": 4189,
      "Ġrelationship": 4190,
      "195": 4191,
      "arr": 4192,
      "hib": 4193,
      "ĠDep": 4194,
      "67": 4195,
      "Ġë¬¸ìłľ": 4196,
      "ĠëĪ": 4197,
      "Ġ?": 4198,
      "Ġinput": 4199,
      "bb": 4200,
      "issions": 4201,
      "ëıĦë¡Ŀ": 4202,
      "Ġpractice": 4203,
      "ja": 4204,
      "da": 4205,
      "500": 4206,
      "Ġanimals": 4207,
      "Ġarch": 4208,
      "49": 4209,
      "Ġprofess": 4210,
      "ĠfÃ¶r": 4211,
      "Ġprovides": 4212,
      "Ġmaterials": 4213,
      "Ġregion": 4214,
      "Ġeconomic": 4215,
      "EL": 4216,
      "abor": 4217,
      "ÃŃt": 4218,
      ".prot": 4219,
      "Status": 4220,
      "ĠÑĥ": 4221,
      "apan": 4222,
      "Ġavoid": 4223,
      "Ġparts": 4224,
      "ðŁ": 4225,
      "ë¦½": 4226,
      "è¡": 4227,
      "////////": 4228,
      "Ġpublished": 4229,
      "_T": 4230,
      "Ġweight": 4231,
      "åľ¨": 4232,
      "istance": 4233,
      "07": 4234,
      "Ġcondition": 4235,
      "pid": 4236,
      "aff": 4237,
      "Ġentire": 4238,
      "ĠÙħÛĮ": 4239,
      "lying": 4240,
      "ëª©": 4241,
      "Ġmanagement": 4242,
      "izing": 4243,
      "ĠØ§Ø³Øª": 4244,
      "Ġsett": 4245,
      "ëĳĲ": 4246,
      "Ġcoll": 4247,
      "ìĦ±ìĿĦ": 4248,
      "Ġì°¾": 4249,
      "_st": 4250,
      "ply": 4251,
      "ret": 4252,
      "Ġability": 4253,
      "\"),": 4254,
      "ĠFl": 4255,
      "http": 4256,
      "nection": 4257,
      "ync": 4258,
      "ĠCO": 4259,
      "ëĭ´": 4260,
      "mod": 4261,
      "rim": 4262,
      "ĠíĻľìļ©": 4263,
      "Ġquick": 4264,
      "Ġprovided": 4265,
      "utes": 4266,
      "ĠìĿ´ëŁ¬íķľ": 4267,
      "ctx": 4268,
      "ä¼": 4269,
      "Ġidea": 4270,
      "Ġpattern": 4271,
      "Ġbecom": 4272,
      "ros": 4273,
      "Ġcode": 4274,
      "Ġonline": 4275,
      "Ġì§ĢìĽĲ": 4276,
      "Ġmedic": 4277,
      "You": 4278,
      "dom": 4279,
      "ĠLicense": 4280,
      "Message": 4281,
      "Ġgas": 4282,
      "ival": 4283,
      "itted": 4284,
      "88": 4285,
      "Ġ</": 4286,
      "Ġfactors": 4287,
      "Ġhealthy": 4288,
      "minist": 4289,
      "ĠëĳĲ": 4290,
      "Ġfig": 4291,
      "Ġyet": 4292,
      "íĻ©": 4293,
      "fort": 4294,
      "book": 4295,
      "(r": 4296,
      "cient": 4297,
      "Ġdiet": 4298,
      "æĿ": 4299,
      "ĠëĶĶ": 4300,
      "ëĵ¤ìĿĺ": 4301,
      "Ġexperien": 4302,
      "empl": 4303,
      "Ġcomes": 4304,
      "xy": 4305,
      "Ġitself": 4306,
      "Ġì§Ī": 4307,
      "orage": 4308,
      "Ġexerc": 4309,
      "193": 4310,
      "áºŃ": 4311,
      "file": 4312,
      "å¾": 4313,
      "ÏģÎ¹": 4314,
      "Ġstd": 4315,
      "ĠëĤ¨": 4316,
      "Ġpara": 4317,
      "191": 4318,
      "Ġnecessary": 4319,
      "Ġassess": 4320,
      "ĠGu": 4321,
      "Ġmeasure": 4322,
      "Ġma": 4323,
      "&&(": 4324,
      "());Ċ": 4325,
      "IG": 4326,
      "Ġdog": 4327,
      "Ġsepar": 4328,
      "ëł¹": 4329,
      "icles": 4330,
      "Ġê²ĮìŀĦ": 4331,
      "ìķĺ": 4332,
      "Item": 4333,
      "03": 4334,
      "Ġmoney": 4335,
      "Ġlos": 4336,
      "Ġhalf": 4337,
      "Ġfish": 4338,
      "ì½Ķ": 4339,
      "Ġoil": 4340,
      "Ġinteg": 4341,
      "Bl": 4342,
      "Ġíĸī": 4343,
      "met": 4344,
      "Ġpor": 4345,
      "´ë©": 4346,
      "Ġsuff": 4347,
      "Ġprevious": 4348,
      "Ġopp": 4349,
      "Ġgi": 4350,
      "ìľ¨": 4351,
      "Ġalmost": 4352,
      "ĠëķĮë¬¸": 4353,
      "US": 4354,
      "ĉfor": 4355,
      "Ġpersonal": 4356,
      "IM": 4357,
      "Ġmonths": 4358,
      "Ġë©Ķ": 4359,
      "æī": 4360,
      "47": 4361,
      "ìĬ¤íĬ¸": 4362,
      "Ġinstance": 4363,
      "emic": 4364,
      "Ġë³¸": 4365,
      "Ġessential": 4366,
      "ĠPer": 4367,
      "Ġstop": 4368,
      "Ġnormal": 4369,
      ".app": 4370,
      "ĠState": 4371,
      "astic": 4372,
      "itation": 4373,
      "Î²": 4374,
      "Ġë¡ľ": 4375,
      "ony": 4376,
      "****************": 4377,
      "Ġproduce": 4378,
      "Ġdeb": 4379,
      "opyright": 4380,
      "Ġapproach": 4381,
      "Ġëªħ": 4382,
      "ĉĉĉĉĉ": 4383,
      "AB": 4384,
      "}}": 4385,
      "ĠìĤ°": 4386,
      "=e": 4387,
      "inn": 4388,
      "Ġfire": 4389,
      "umb": 4390,
      "ĠpÅĻ": 4391,
      "Read": 4392,
      "Ġparents": 4393,
      "ê¸°ë¥¼": 4394,
      "ĠÎ¼Îµ": 4395,
      "Ġì´Ī": 4396,
      "_P": 4397,
      "uly": 4398,
      "Ġê°ĻìĿĢ": 4399,
      "Ġìĭľê°Ħ": 4400,
      "Ġê°ģ": 4401,
      "imum": 4402,
      "itary": 4403,
      "xf": 4404,
      "istics": 4405,
      "Not": 4406,
      "Ġ{čĊ": 4407,
      "ĠØ¨Ø±": 4408,
      "Ġfeed": 4409,
      "Ġclean": 4410,
      ":function": 4411,
      "íħĮ": 4412,
      "ildren": 4413,
      "Ġste": 4414,
      "Ġìļ´": 4415,
      "ĠAp": 4416,
      "Ġ*Ċ": 4417,
      "ĠÎŃ": 4418,
      "Ġlen": 4419,
      "./": 4420,
      "Ġsix": 4421,
      "anced": 4422,
      "ĠEd": 4423,
      "Ġreading": 4424,
      "Ġrev": 4425,
      "Ġmessage": 4426,
      "Ġê²½íĹĺ": 4427,
      "Ġconduct": 4428,
      "Ġemer": 4429,
      "ĠCo": 4430,
      "ìĻ¸": 4431,
      "ĠÂłĠÂł": 4432,
      "Ġìĭ¬": 4433,
      "Ġ)": 4434,
      "Hand": 4435,
      "ëĿ¼ìĿ¸": 4436,
      "Ġbase": 4437,
      "unk": 4438,
      "elt": 4439,
      "ìĥī": 4440,
      "Ġsex": 4441,
      "light": 4442,
      "ithub": 4443,
      "verse": 4444,
      ".in": 4445,
      "Ġregard": 4446,
      "Ġdiagn": 4447,
      "Ġmach": 4448,
      "istory": 4449,
      "gn": 4450,
      "Ġwon": 4451,
      "ëĵ±": 4452,
      "ĠEarth": 4453,
      "ĠíķĺëĤĺ": 4454,
      "erson": 4455,
      "cret": 4456,
      "ptions": 4457,
      "ĠII": 4458,
      "wh": 4459,
      "Ġever": 4460,
      "ëĤ¨": 4461,
      "Field": 4462,
      "Ġ+=": 4463,
      "ensive": 4464,
      "Ġsoil": 4465,
      "Ġë³µ": 4466,
      "code": 4467,
      "Ġ()": 4468,
      "Ġcá»§": 4469,
      "Ġhet": 4470,
      "Æ¡": 4471,
      "Æ°á»Ŀ": 4472,
      "=t": 4473,
      "ëĭ¬": 4474,
      "ĠTest": 4475,
      "UL": 4476,
      "Ġstructure": 4477,
      "Ġrecent": 4478,
      "Ġëĭ¬": 4479,
      "rate": 4480,
      "Ġëĭ¤ë¥¸": 4481,
      "vey": 4482,
      "Ġtraining": 4483,
      "Ġcomputer": 4484,
      "IV": 4485,
      "Ġìķ½": 4486,
      "pected": 4487,
      "Ġterms": 4488,
      "ĠÐ³": 4489,
      "Ġcontact": 4490,
      "Ġtook": 4491,
      "reate": 4492,
      "ached": 4493,
      "Ġcá»§a": 4494,
      "aily": 4495,
      "ĠSch": 4496,
      "asc": 4497,
      "ero": 4498,
      "íĿ": 4499,
      "ĠHis": 4500,
      "ĠGener": 4501,
      "Ġimplement": 4502,
      "Ġclose": 4503,
      "ëĭ¤ëĬĶ": 4504,
      "Ġindividuals": 4505,
      "Ġbegan": 4506,
      "ample": 4507,
      "Ġcompany": 4508,
      "éĢ": 4509,
      "íķĺì§Ģ": 4510,
      "Ġconfig": 4511,
      "192": 4512,
      "pir": 4513,
      "_M": 4514,
      "Ġpopular": 4515,
      "gl": 4516,
      "æķ": 4517,
      "Ġled": 4518,
      "Äĩ": 4519,
      "Ġmaintain": 4520,
      "aging": 4521,
      "ogy": 4522,
      "Ġmethods": 4523,
      "Ø§Ùĩ": 4524,
      "Ent": 4525,
      "áº§": 4526,
      "-based": 4527,
      "Ġexpress": 4528,
      "ĠìĤ¬ìļ©ìŀĲ": 4529,
      "ĠReg": 4530,
      "OS": 4531,
      "Size": 4532,
      "amed": 4533,
      ">>": 4534,
      "Ġaccept": 4535,
      "Ġgreen": 4536,
      "ĠíķĺëĬĶ": 4537,
      "trans": 4538,
      "html": 4539,
      "ä¸Ń": 4540,
      "Ref": 4541,
      "Ġhold": 4542,
      "Ġclaim": 4543,
      "ĠÐ¿Ð¾": 4544,
      "aling": 4545,
      "Ġir": 4546,
      "Mod": 4547,
      "Ġëª¨ëĵł": 4548,
      "íĮĲ": 4549,
      "ING": 4550,
      "ë¡ľìļ´": 4551,
      "ĠìĹħ": 4552,
      "fully": 4553,
      "Ġshows": 4554,
      "Ġtell": 4555,
      "iam": 4556,
      "Ġemb": 4557,
      "erver": 4558,
      "ÐµÐ¼": 4559,
      "ĠìŀĲìĭł": 4560,
      "ì»": 4561,
      "ĠëĮĢíķ´": 4562,
      "Code": 4563,
      "-h": 4564,
      "Ġetc": 4565,
      "valid": 4566,
      "Ġincreasing": 4567,
      "Ġchemical": 4568,
      "no": 4569,
      "erve": 4570,
      "ilter": 4571,
      "Ġê°Ģìŀ¥": 4572,
      "Ġoriginal": 4573,
      "args": 4574,
      "\";Ċ": 4575,
      "Ġthá»": 4576,
      "vention": 4577,
      "duc": 4578,
      "Ġappear": 4579,
      "zen": 4580,
      ",-": 4581,
      "From": 4582,
      "Ġê¸°ìĪł": 4583,
      "Ġexpected": 4584,
      "Ġtaking": 4585,
      "Ġsociety": 4586,
      "uster": 4587,
      "Ġthroughout": 4588,
      "-in": 4589,
      "zt": 4590,
      "Ġfem": 4591,
      "Ġindustry": 4592,
      "Ġbehavior": 4593,
      "Man": 4594,
      "erous": 4595,
      "Ġdri": 4596,
      "Ġpie": 4597,
      "yt": 4598,
      "Ġsense": 4599,
      "Ġbal": 4600,
      "urrent": 4601,
      "EM": 4602,
      "ini": 4603,
      "ëŀµ": 4604,
      "Ġlonger": 4605,
      "\"`Ċ": 4606,
      "Ġcontinue": 4607,
      "Ġdire": 4608,
      "ĠNone": 4609,
      "ÐºÐ°": 4610,
      "curity": 4611,
      "61": 4612,
      "ĠPe": 4613,
      "estern": 4614,
      "iation": 4615,
      "],[": 4616,
      "Ġoptions": 4617,
      "Ã©t": 4618,
      "77": 4619,
      "Ġtemperature": 4620,
      "Ġtil": 4621,
      "Ġevents": 4622,
      "Ġeen": 4623,
      "ccording": 4624,
      "Ġì²´": 4625,
      "Ġbuilt": 4626,
      "Ġtalk": 4627,
      "Ġviol": 4628,
      "ector": 4629,
      "ìĽĢ": 4630,
      "Ġface": 4631,
      "ĠJew": 4632,
      "Ġtable": 4633,
      "mi": 4634,
      "Ġsleep": 4635,
      "ione": 4636,
      "ulations": 4637,
      "ĠìĹĲ": 4638,
      "ĠMe": 4639,
      "rapy": 4640,
      "Ġhours": 4641,
      "fect": 4642,
      "Ġstandard": 4643,
      "èĢ": 4644,
      "ĠResearch": 4645,
      "pan": 4646,
      "Ġì½Ķ": 4647,
      "ella": 4648,
      "Ġenvironmental": 4649,
      "ĠAfter": 4650,
      "Att": 4651,
      "____": 4652,
      "Sc": 4653,
      "ĉs": 4654,
      "åº": 4655,
      "Ġcamp": 4656,
      "85": 4657,
      "Ġsem": 4658,
      "ÙħØ§": 4659,
      "ëĦĪ": 4660,
      "Ġinfect": 4661,
      "Ġbill": 4662,
      ".prototype": 4663,
      "Ġprop": 4664,
      "Ġinj": 4665,
      "Be": 4666,
      "ãĤĮ": 4667,
      "IL": 4668,
      "lege": 4669,
      "ĠìłĦë¬¸": 4670,
      "Ġ/**Ċ": 4671,
      "rought": 4672,
      "edia": 4673,
      "Ġschools": 4674,
      "ĠFran": 4675,
      "\\xf": 4676,
      "abet": 4677,
      "ribution": 4678,
      "hel": 4679,
      "Ġaff": 4680,
      "éĩ": 4681,
      "uffer": 4682,
      "Ġë¶ĦìĦĿ": 4683,
      "ributed": 4684,
      "lear": 4685,
      "orks": 4686,
      "gram": 4687,
      "Ġremain": 4688,
      "Ġmatter": 4689,
      "ocation": 4690,
      "rast": 4691,
      "ih": 4692,
      "IP": 4693,
      "eters": 4694,
      "resh": 4695,
      "')": 4696,
      "Trans": 4697,
      "ÙĬØ±": 4698,
      "æľī": 4699,
      "Ġsurv": 4700,
      "Ġthing": 4701,
      "ĠìĭĿ": 4702,
      "ĠìŀĦ": 4703,
      "po": 4704,
      "ë°ķ": 4705,
      "Ġdeep": 4706,
      "Ġdiv": 4707,
      "Ġnetwork": 4708,
      "ĠÙ¾": 4709,
      "ĠíĴ": 4710,
      "Ġoutput": 4711,
      "ĉvar": 4712,
      "Ùĭ": 4713,
      "heck": 4714,
      "ĠSchool": 4715,
      "ederal": 4716,
      "ë²Ī": 4717,
      "ëĲĺëĬĶ": 4718,
      "=n": 4719,
      "Ġreview": 4720,
      "ÎµÎ¯": 4721,
      "ricult": 4722,
      "byte": 4723,
      "Ġcat": 4724,
      "lands": 4725,
      "ĠíĹ": 4726,
      "Ġstatus": 4727,
      "Ġheat": 4728,
      "Ġblock": 4729,
      "ãģ¾": 4730,
      "Ġcaused": 4731,
      "Ġì§ĢìĹŃ": 4732,
      "lim": 4733,
      "istry": 4734,
      "Ġwild": 4735,
      "ius": 4736,
      "Ġremov": 4737,
      "Ð´Ð°": 4738,
      "Ġeasy": 4739,
      "ĠBritish": 4740,
      "ba": 4741,
      "itude": 4742,
      "wo": 4743,
      "Î½Î¿": 4744,
      "ļį": 4745,
      "Ġincludes": 4746,
      "è®": 4747,
      "Ġlives": 4748,
      "else": 4749,
      "ĠíĻĶ": 4750,
      "ĠNe": 4751,
      "Ġshown": 4752,
      "Input": 4753,
      "Ġfru": 4754,
      "´ëĵľ": 4755,
      "Ġë²ł": 4756,
      "ĠInstit": 4757,
      "do": 4758,
      "bor": 4759,
      "alt": 4760,
      "Ġmeaning": 4761,
      "gar": 4762,
      "Ġissue": 4763,
      "ĠìĹ¬ëŁ¬": 4764,
      "Ġaverage": 4765,
      "mar": 4766,
      "ĠPre": 4767,
      "Ð¾Ð³Ð¾": 4768,
      "Ġbenefits": 4769,
      "_D": 4770,
      "Ġcauses": 4771,
      "Ġspread": 4772,
      "Ġod": 4773,
      "ĠìķĦëĭĪ": 4774,
      "inks": 4775,
      "ito": 4776,
      "ĠWhile": 4777,
      "One": 4778,
      "Ġheav": 4779,
      "Ġregular": 4780,
      "ief": 4781,
      "{}": 4782,
      "room": 4783,
      "rt": 4784,
      "lation": 4785,
      "Ġsoftware": 4786,
      "Ġwrite": 4787,
      "ufact": 4788,
      "ky": 4789,
      "OM": 4790,
      "Ġrespect": 4791,
      "ENT": 4792,
      "Ġíļ¨ê³¼": 4793,
      "ports": 4794,
      "ĠPart": 4795,
      "ìĺĪ": 4796,
      "ounter": 4797,
      "ĉf": 4798,
      "ĠÚ©Ùĩ": 4799,
      "42": 4800,
      "å¼": 4801,
      "rial": 4802,
      "Ġsch": 4803,
      "ĠAI": 4804,
      "Ġorigin": 4805,
      "Ġharm": 4806,
      "ÂłÂł": 4807,
      "Ġclos": 4808,
      "Ø±Ø¯": 4809,
      "63": 4810,
      "ĠìķĮìķĦ": 4811,
      "point": 4812,
      "Form": 4813,
      "andom": 4814,
      "pen": 4815,
      "Ġgreater": 4816,
      "Ġpod": 4817,
      "Ġpen": 4818,
      "ĠØ§ÙĦØ£": 4819,
      "ĠíĪ¬ìŀĲ": 4820,
      "Ġdesigned": 4821,
      "abled": 4822,
      "ì¶ķ": 4823,
      ".Error": 4824,
      "Ġ});Ċ": 4825,
      "ĠSystem": 4826,
      "ĠÎ±ÏĢ": 4827,
      "ni": 4828,
      "Ġmechan": 4829,
      "attle": 4830,
      "ronic": 4831,
      "pat": 4832,
      "ĠJapan": 4833,
      "UN": 4834,
      "Log": 4835,
      "ĠcÃ³": 4836,
      "åĩ": 4837,
      "active": 4838,
      "(i": 4839,
      "plication": 4840,
      "Ġ(Ċ": 4841,
      "ĠGo": 4842,
      "osition": 4843,
      "known": 4844,
      "ë¦¬ê³ł": 4845,
      ",r": 4846,
      "ailed": 4847,
      "Ġhost": 4848,
      "ä¸į": 4849,
      "(l": 4850,
      "igen": 4851,
      "Ġcarbon": 4852,
      "Ġsomet": 4853,
      "XX": 4854,
      "Ġpsych": 4855,
      "Î¾": 4856,
      "Ġuses": 4857,
      "ìłķë³´": 4858,
      "AG": 4859,
      "Ġindex": 4860,
      "ê±°ëĤĺ": 4861,
      "ĠìĤ¬íļĮ": 4862,
      "Ġseem": 4863,
      "\\\\": 4864,
      "url": 4865,
      "íİ¸": 4866,
      "ĠÃ¶": 4867,
      "Ġload": 4868,
      "Ġmer": 4869,
      "Ġmedia": 4870,
      "Ġlength": 4871,
      "ocol": 4872,
      "ĠNot": 4873,
      "ÛĮØ¯": 4874,
      "Ġíģ°": 4875,
      "Ġcomplete": 4876,
      "Ð¾Ð±": 4877,
      "Ġreported": 4878,
      "Ġdraw": 4879,
      "Ġwritten": 4880,
      "ìĿ´íĦ°": 4881,
      "ĠPres": 4882,
      "Ġculture": 4883,
      "Ġdemon": 4884,
      "ĠìĿĮ": 4885,
      "Ġjava": 4886,
      "Ġsus": 4887,
      "Ġpan": 4888,
      "Ġum": 4889,
      "ua": 4890,
      "Ġuna": 4891,
      "ãĥ³": 4892,
      "Ġgrad": 4893,
      "Ġcorrect": 4894,
      "annel": 4895,
      "ĠíĬ¹íŀĪ": 4896,
      "iber": 4897,
      "ĠEl": 4898,
      "Ġensure": 4899,
      "aged": 4900,
      "Ġgot": 4901,
      "ĠìĻ¸": 4902,
      "ĠIndia": 4903,
      "SS": 4904,
      "Ġcompan": 4905,
      "ĠÏĦÎ·ÏĤ": 4906,
      "Ġearth": 4907,
      "Ġlack": 4908,
      "Ġtax": 4909,
      "Ġvisit": 4910,
      "cks": 4911,
      "Ġang": 4912,
      "Ġsn": 4913,
      "Ġcompet": 4914,
      "/s": 4915,
      "Ġprograms": 4916,
      "roid": 4917,
      "Ġscre": 4918,
      "Ġsearch": 4919,
      "ĠWill": 4920,
      "Ġwebs": 4921,
      "erved": 4922,
      "ëıħ": 4923,
      "Ġrout": 4924,
      "Ġsources": 4925,
      "Ġbacter": 4926,
      "path": 4927,
      "ÏĦÎ¹": 4928,
      "({": 4929,
      "Ġidentify": 4930,
      "ano": 4931,
      "imately": 4932,
      "Ġìĭľìŀ¥": 4933,
      "########": 4934,
      "190": 4935,
      "Ġmusic": 4936,
      "ÏĦÎ¹Îº": 4937,
      "ios": 4938,
      "Ġvit": 4939,
      "imal": 4940,
      "include": 4941,
      "ĠëĿ¼": 4942,
      "ĠArt": 4943,
      "Ġvariety": 4944,
      "Ġforce": 4945,
      "Ġë§Įëĵ¤": 4946,
      "Ġslow": 4947,
      "Ġsimply": 4948,
      "Ġdoing": 4949,
      "ĠìĻĦ": 4950,
      "Ġeval": 4951,
      "ride": 4952,
      "break": 4953,
      "Ġbasic": 4954,
      "Ġpolicy": 4955,
      "ida": 4956,
      "aries": 4957,
      "Ġbelieve": 4958,
      "à¤": 4959,
      "Ã©g": 4960,
      "ÑĢÑĥ": 4961,
      "Ġstreng": 4962,
      "Ġìŀĺ": 4963,
      "Ġec": 4964,
      "Ġthreat": 4965,
      "Ġprec": 4966,
      "package": 4967,
      "Ġutil": 4968,
      "ervation": 4969,
      "Ġìĭľìŀĳ": 4970,
      "-st": 4971,
      "Ġpositive": 4972,
      "ëŀĳ": 4973,
      "Ġvirus": 4974,
      "ë§Ŀ": 4975,
      "Ġobtain": 4976,
      "avor": 4977,
      "ellow": 4978,
      "ê¸¸": 4979,
      "ĠíĬ¸": 4980,
      "ming": 4981,
      "apter": 4982,
      "ãģĭ": 4983,
      "Ġinform": 4984,
      "ixed": 4985,
      "Ġfa": 4986,
      "Ġbit": 4987,
      "Ġmovement": 4988,
      "300": 4989,
      "Ġnames": 4990,
      "Ġsil": 4991,
      "uh": 4992,
      "atives": 4993,
      "Ġì§ĳ": 4994,
      "Ġtree": 4995,
      "mission": 4996,
      "plit": 4997,
      "Ã¼r": 4998,
      "Ġversion": 4999,
      "êµ°": 5000,
      "Ġscientists": 5001,
      "Group": 5002,
      "overy": 5003,
      "Ð¼Ð¸": 5004,
      "ìĶ": 5005,
      "Ġì¶©": 5006,
      "Ġcustom": 5007,
      "iers": 5008,
      "Ġeat": 5009,
      "ë³Ģ": 5010,
      "igned": 5011,
      "ĠíĨł": 5012,
      "Ġíĳľ": 5013,
      "Ġhelps": 5014,
      "Ġelement": 5015,
      "ĠFr": 5016,
      "aches": 5017,
      "ĠMore": 5018,
      "Ġtá»": 5019,
      "Ġdamage": 5020,
      "Ġvacc": 5021,
      "iques": 5022,
      "HE": 5023,
      "uge": 5024,
      "ira": 5025,
      "Ġshare": 5026,
      "Ġencou": 5027,
      "arily": 5028,
      "ography": 5029,
      "Ġpoints": 5030,
      "Ġoutside": 5031,
      "ali": 5032,
      "oke": 5033,
      "_in": 5034,
      "Ġ...": 5035,
      "ben": 5036,
      "Ġsometimes": 5037,
      "Ġinvolved": 5038,
      "ĠìķĦìĿ´": 5039,
      "ĠìĨį": 5040,
      "59": 5041,
      "íļį": 5042,
      "Ġì²ĺ": 5043,
      "Ġì¤Ģ": 5044,
      "Ġìĺ¬": 5045,
      "Ġparam": 5046,
      "Ġì±Ħ": 5047,
      "rench": 5048,
      "ĠCount": 5049,
      "ĠScience": 5050,
      "ĠAustral": 5051,
      "ech": 5052,
      "object": 5053,
      "ìĹĲëıĦ": 5054,
      "sg": 5055,
      "ĠKing": 5056,
      "ìĸ¸": 5057,
      "ĠØ§ÙĦØª": 5058,
      "Ġforms": 5059,
      "unt": 5060,
      "ership": 5061,
      "Ġì·¨": 5062,
      "Ġincluded": 5063,
      "ìĸµ": 5064,
      "Ġcommand": 5065,
      "Ġsust": 5066,
      "github": 5067,
      "Ġattempt": 5068,
      "Ġê°Ģì§Ģ": 5069,
      "Ġconsist": 5070,
      "acity": 5071,
      "06": 5072,
      "ĠRev": 5073,
      "ĠìĦľìļ¸": 5074,
      "ĠAdd": 5075,
      "Le": 5076,
      "43": 5077,
      "Ġpatient": 5078,
      "ĠGl": 5079,
      "oll": 5080,
      "Ġnumbers": 5081,
      "ĠChina": 5082,
      "Ġpict": 5083,
      "41": 5084,
      "ĠAg": 5085,
      "Ġìĸĳ": 5086,
      "Ġmom": 5087,
      "HT": 5088,
      "Ġemot": 5089,
      "Ġelectric": 5090,
      "Ġlove": 5091,
      "Äĥ": 5092,
      "Ľi": 5093,
      "nov": 5094,
      "Øº": 5095,
      "Ġ===": 5096,
      "Ġê³łê°Ŀ": 5097,
      "md": 5098,
      "itory": 5099,
      "Ġmel": 5100,
      "urg": 5101,
      "Ġchalleng": 5102,
      ".create": 5103,
      "Ġë²Ī": 5104,
      "ĠRep": 5105,
      "79": 5106,
      "58": 5107,
      "ĠÚ¯": 5108,
      "Ġattention": 5109,
      "ku": 5110,
      "df": 5111,
      "ë°°": 5112,
      "ĠRet": 5113,
      "Ġëĭ¤ìĿĮ": 5114,
      "Ġadded": 5115,
      "kl": 5116,
      "ëįĶ": 5117,
      "Ġmagn": 5118,
      "Ġparticularly": 5119,
      "hing": 5120,
      "Ġaccom": 5121,
      "Ġinstead": 5122,
      "ëĵ¤ìĿĦ": 5123,
      "Ġíħ": 5124,
      "term": 5125,
      "ocks": 5126,
      "ĠJan": 5127,
      "Ġquant": 5128,
      "âĢ¢": 5129,
      "Ġcit": 5130,
      "ÑĨÐ¸": 5131,
      "ìĨ¡": 5132,
      "ë¶ģ": 5133,
      "Î¯Î½": 5134,
      "á»Ļt": 5135,
      "ëĲĺìĸ´": 5136,
      "Ġexcept": 5137,
      "Ġforest": 5138,
      "Ġì¤ĳìļĶíķľ": 5139,
      "Ġpoor": 5140,
      "Ġprimary": 5141,
      "ula": 5142,
      "ìĪľ": 5143,
      "Ġexec": 5144,
      "lick": 5145,
      "actions": 5146,
      "ĠÂ«": 5147,
      "Ġproduced": 5148,
      "Ġinternational": 5149,
      "ĠApp": 5150,
      "Ġseries": 5151,
      "Ġhol": 5152,
      "Ġdemonstr": 5153,
      "Ġdate": 5154,
      "uilder": 5155,
      "Î±Î½": 5156,
      "Ġactive": 5157,
      "Ġhy": 5158,
      "_F": 5159,
      "result": 5160,
      "Ġten": 5161,
      "ĠíĻĺê²½": 5162,
      "zer": 5163,
      "][": 5164,
      "Ġdeveloping": 5165,
      "=this": 5166,
      "Ġha": 5167,
      "Ġfoods": 5168,
      "Ġprogress": 5169,
      "ĠëĮĢì¶ľ": 5170,
      "Ġproperty": 5171,
      "roy": 5172,
      "Ġtend": 5173,
      "Ġlate": 5174,
      "ĠìĿ´ë²": 5175,
      "atively": 5176,
      "ceed": 5177,
      "ìķ¡": 5178,
      "ottom": 5179,
      "Ġfamil": 5180,
      "Ġvers": 5181,
      "½ĺ": 5182,
      "Ġextra": 5183,
      ".x": 5184,
      "Ad": 5185,
      "Ġìĸ¸": 5186,
      "Ġast": 5187,
      "Ġgrowing": 5188,
      "æĢ": 5189,
      "rig": 5190,
      "OP": 5191,
      "loat": 5192,
      "uz": 5193,
      "æŃ": 5194,
      "Ġíģ¬": 5195,
      "iÃ³n": 5196,
      "Ġê²½ìłľ": 5197,
      "Ġinvestig": 5198,
      "alls": 5199,
      "Â»": 5200,
      "ĠCenter": 5201,
      "ibrary": 5202,
      "Ġìĺ¨ëĿ¼ìĿ¸": 5203,
      "Ġindepend": 5204,
      "ĠLa": 5205,
      "Ġsqu": 5206,
      "\\xc": 5207,
      "Ġprep": 5208,
      "run": 5209,
      "ĠCons": 5210,
      "ë¦¼": 5211,
      "Ġteachers": 5212,
      "ĠSte": 5213,
      "Ġhyd": 5214,
      "ëłĪìĿ´": 5215,
      "ropri": 5216,
      "Ġtakes": 5217,
      "Ġestim": 5218,
      "ashing": 5219,
      "Ġgenerally": 5220,
      "Ġgetting": 5221,
      "Ġvalid": 5222,
      "ĠìĨĲ": 5223,
      "Ġanimal": 5224,
      "ĠìłĪ": 5225,
      "Ġsafety": 5226,
      "Equal": 5227,
      "Ġserious": 5228,
      "íģ": 5229,
      "rack": 5230,
      "Ġperformance": 5231,
      "oon": 5232,
      "uit": 5233,
      "ĠìĤ¬ìĿ´íĬ¸": 5234,
      "Ġstyle": 5235,
      "ĠUs": 5236,
      "ĠØ§ÛĮÙĨ": 5237,
      "ĠìĥĿê°ģ": 5238,
      "72": 5239,
      ".cl": 5240,
      "Ġfeet": 5241,
      "Ġmanufact": 5242,
      "ki": 5243,
      "Ġbab": 5244,
      "Ġconcent": 5245,
      "å¸": 5246,
      "Ġhor": 5247,
      "');Ċ": 5248,
      "ube": 5249,
      "FF": 5250,
      "ì§Ģëħ¸": 5251,
      "Æ°á»£": 5252,
      "Ġì¶Ķì²ľ": 5253,
      "ĠìĿ´ìĥģ": 5254,
      "Table": 5255,
      "Ġinstit": 5256,
      "Ġì¦Ĳ": 5257,
      "Ap": 5258,
      ")(": 5259,
      "Ġtravel": 5260,
      "ancial": 5261,
      "Ġful": 5262,
      "No": 5263,
      "Ġmultiple": 5264,
      "Count": 5265,
      "je": 5266,
      "ĠCor": 5267,
      "ĠMin": 5268,
      "cles": 5269,
      "ë¦Ħ": 5270,
      "Ġprobably": 5271,
      "ÎµÏĤ": 5272,
      "Ġì¤Ħ": 5273,
      "Ð»Ðµ": 5274,
      "irit": 5275,
      "Ġideas": 5276,
      "lem": 5277,
      "Ġcross": 5278,
      "alled": 5279,
      "´ë³´": 5280,
      "Î¿Ïį": 5281,
      "ĠìĹ°êµ¬": 5282,
      "ework": 5283,
      "ÑģÑĤÐ²": 5284,
      "icon": 5285,
      "Ġlif": 5286,
      "abase": 5287,
      "ĠìŀĪìľ¼ë©°": 5288,
      "46": 5289,
      "ando": 5290,
      "Ġdecre": 5291,
      "Ġrefer": 5292,
      "net": 5293,
      "rated": 5294,
      "çĽ": 5295,
      "Ġaware": 5296,
      "Ġtill": 5297,
      "Ġbad": 5298,
      "Ġê´ĳ": 5299,
      "Ġcou": 5300,
      "Ġaltern": 5301,
      "ĠIS": 5302,
      "Ġcivil": 5303,
      "Ġvideo": 5304,
      "Ġfront": 5305,
      "Ġweb": 5306,
      "ĠðŁ": 5307,
      "Ġago": 5308,
      "å¯": 5309,
      "Ġprior": 5310,
      "Reg": 5311,
      "å·": 5312,
      "Ġlimit": 5313,
      "#include": 5314,
      "OL": 5315,
      "ĠÏĦÎ·Î½": 5316,
      "Ġein": 5317,
      "ns": 5318,
      "Ġord": 5319,
      "Ġnation": 5320,
      "Ġadditional": 5321,
      "ĠAug": 5322,
      "Ð»Ñı": 5323,
      "ë¹": 5324,
      "Ġíķľëĭ¤": 5325,
      "ĠRuss": 5326,
      "ÛĮØ±": 5327,
      "ë³ĳ": 5328,
      "Ġstarted": 5329,
      "isions": 5330,
      "Ġhttps": 5331,
      "Ġnight": 5332,
      "Ø§Ø²": 5333,
      "wa": 5334,
      "Ġunique": 5335,
      "Ġdetermine": 5336,
      "Ġwood": 5337,
      "Ġaud": 5338,
      "ĉm": 5339,
      "Ġëī´ìĬ¤": 5340,
      "So": 5341,
      "ĠêµĲìľ¡": 5342,
      "ëĵ¤ìĹĲê²Į": 5343,
      "ĠAN": 5344,
      "Ġallows": 5345,
      "Ġëł": 5346,
      "ĠìĦ¸ê³Ħ": 5347,
      "ĠGr": 5348,
      "è¦": 5349,
      "ĠÑĢÐ°": 5350,
      "iforn": 5351,
      "Ġbur": 5352,
      "Ġsea": 5353,
      "Ġmental": 5354,
      "Ġappropri": 5355,
      "ĠÐ·Ð°": 5356,
      "erg": 5357,
      "ML": 5358,
      "Ġol": 5359,
      "ĠBo": 5360,
      "Ġveget": 5361,
      "Ġlooking": 5362,
      "Ã§Ã£o": 5363,
      "Property": 5364,
      "Ġmodels": 5365,
      "Ġwarm": 5366,
      "Ġkids": 5367,
      "eta": 5368,
      "\"ĊĊ": 5369,
      "ĠÎºÎ±": 5370,
      "Ġtherefore": 5371,
      "amm": 5372,
      "!==": 5373,
      "Ġì»¤": 5374,
      "Ġdifference": 5375,
      "ĠÑĤ": 5376,
      "Ġsold": 5377,
      "ĠSm": 5378,
      "used": 5379,
      "ĠìłĦëŀµ": 5380,
      "yth": 5381,
      "Ġsound": 5382,
      "Ġanswer": 5383,
      "Sub": 5384,
      "ĠEduc": 5385,
      "inition": 5386,
      "ecause": 5387,
      "Ġtools": 5388,
      "å¤§": 5389,
      "Ġwind": 5390,
      "va": 5391,
      "Ġpoll": 5392,
      "ĠØ±Ø§": 5393,
      "Ġapplication": 5394,
      "Ġkom": 5395,
      "Ġcontains": 5396,
      "ãģ£": 5397,
      "TR": 5398,
      "Ġeth": 5399,
      "ulate": 5400,
      "Ġsomeone": 5401,
      "reen": 5402,
      "Ð¾ÑĢ": 5403,
      "å½": 5404,
      "´ë©´": 5405,
      "Head": 5406,
      "Ġcapt": 5407,
      "Ġê²ĥìĿĢ": 5408,
      "iency": 5409,
      "ĠìĤ´": 5410,
      "Ġìłĳ": 5411,
      "ulum": 5412,
      "Ġsafe": 5413,
      "Ġcard": 5414,
      "Query": 5415,
      "Ġdaily": 5416,
      "Ġinterface": 5417,
      "ĠMany": 5418,
      "ë¨": 5419,
      "year": 5420,
      "98": 5421,
      "ĠAc": 5422,
      "Ġinside": 5423,
      "ĠYour": 5424,
      "pril": 5425,
      "ille": 5426,
      "fl": 5427,
      "Ġthus": 5428,
      "Ġlas": 5429,
      "Ġbul": 5430,
      "Ġing": 5431,
      "ql": 5432,
      "Ġì±ħ": 5433,
      "Ġpow": 5434,
      "Ġeasily": 5435,
      "ĠÑį": 5436,
      "nÄĽ": 5437,
      "ĠAnt": 5438,
      "Ġelements": 5439,
      "Ġit's": 5440,
      "Ġdevice": 5441,
      "eks": 5442,
      "Ġpropos": 5443,
      "Ġmother": 5444,
      "ĠMon": 5445,
      ".log": 5446,
      "Output": 5447,
      "\\xb": 5448,
      "asons": 5449,
      "ìĬ¹": 5450,
      "Ġok": 5451,
      "Ġë°ľìĥĿ": 5452,
      "Ġdang": 5453,
      "Ġmeg": 5454,
      "?:": 5455,
      "]=": 5456,
      "Ġ)Ċ": 5457,
      "ainer": 5458,
      "ĠEm": 5459,
      "Ġê·¼": 5460,
      "ayer": 5461,
      "come": 5462,
      "Ġproced": 5463,
      ".New": 5464,
      "ìķħ": 5465,
      "ãģĵ": 5466,
      "ita": 5467,
      "js": 5468,
      "Ġ{ĊĊ": 5469,
      "item": 5470,
      "Ġtheory": 5471,
      "ĠØ£ÙĨ": 5472,
      "Ã¢n": 5473,
      "Ġoffer": 5474,
      "olar": 5475,
      "ĠRead": 5476,
      "Ġgame": 5477,
      "ëŀ¨": 5478,
      "ancy": 5479,
      "Ġstri": 5480,
      "Ġìĸ´": 5481,
      "arser": 5482,
      "uman": 5483,
      "Ġsecurity": 5484,
      "haps": 5485,
      "zi": 5486,
      ".)": 5487,
      "ECT": 5488,
      "åĮ": 5489,
      ".push": 5490,
      "Ø§Ø³": 5491,
      "Ġresource": 5492,
      "Ġcommunities": 5493,
      "change": 5494,
      "Ġcompared": 5495,
      "CC": 5496,
      "Ġbooks": 5497,
      "ìĿµ": 5498,
      "Ġ\\": 5499,
      "();": 5500,
      "\").": 5501,
      "Ġëĵ¤ìĸ´": 5502,
      "uary": 5503,
      "])": 5504,
      "Ġvo": 5505,
      "Ph": 5506,
      "Ġquite": 5507,
      "Ġëıħ": 5508,
      "ridge": 5509,
      "aly": 5510,
      "Ġdim": 5511,
      "Ġmal": 5512,
      "Ġdirectly": 5513,
      "Ġmag": 5514,
      "rong": 5515,
      "Ġthird": 5516,
      "Ġachieve": 5517,
      "73": 5518,
      "Ġcred": 5519,
      "ĠRec": 5520,
      "ĠList": 5521,
      "_type": 5522,
      "Ġcompanies": 5523,
      "Ġscientific": 5524,
      "Ġê·ľ": 5525,
      "Ġhot": 5526,
      "ĉcase": 5527,
      "Ġtraditional": 5528,
      "Inter": 5529,
      "ĠíĮĲ": 5530,
      "Ġimmedi": 5531,
      "Ġshall": 5532,
      "Ð¾Ð²Ð°": 5533,
      "ĠTrans": 5534,
      "olic": 5535,
      "True": 5536,
      "Ġprinc": 5537,
      "ëĲ©ëĭĪëĭ¤": 5538,
      "Ø¸": 5539,
      "Ã¹": 5540,
      "(ctx": 5541,
      ".ex": 5542,
      "rest": 5543,
      "Ġëģ": 5544,
      "ĠíķŃ": 5545,
      "Ġdiseases": 5546,
      "ë¦°": 5547,
      "Ġseg": 5548,
      ".util": 5549,
      "Ġfast": 5550,
      "Ġìī": 5551,
      "CH": 5552,
      "New": 5553,
      "ĠMost": 5554,
      "ifornia": 5555,
      "ìł¸": 5556,
      "useum": 5557,
      "Ġaspect": 5558,
      "Ġtransport": 5559,
      "ì£": 5560,
      "Ġkan": 5561,
      "íķĺëĭ¤": 5562,
      "ìĦ¼": 5563,
      "anks": 5564,
      "ĠEuropean": 5565,
      "äºĨ": 5566,
      "ding": 5567,
      ".Get": 5568,
      "ÑģÑĤÐ°": 5569,
      "Ġfeatures": 5570,
      "Ġdisplay": 5571,
      "Ġheld": 5572,
      "ĠIN": 5573,
      "Ġlarger": 5574,
      "Ġthous": 5575,
      "Ġtown": 5576,
      ".W": 5577,
      "ĠInstitute": 5578,
      "Ġtests": 5579,
      "Ġlabor": 5580,
      "ìļ±": 5581,
      "flow": 5582,
      "rl": 5583,
      "urt": 5584,
      "ëł¥ìĿĦ": 5585,
      "ĠJes": 5586,
      "Ġcritical": 5587,
      "Ġsection": 5588,
      "áº¥t": 5589,
      "rec": 5590,
      "Ġíĺ¸": 5591,
      "Ġreve": 5592,
      "Ġsin": 5593,
      "Ġlat": 5594,
      "Ġcentral": 5595,
      "æ³": 5596,
      "rage": 5597,
      "ëŀľ": 5598,
      "ĠWest": 5599,
      "Ġtim": 5600,
      "Ġflo": 5601,
      "Ġclin": 5602,
      "Ġalt": 5603,
      "Ġroad": 5604,
      "Ġê²ĥìĿĦ": 5605,
      "EX": 5606,
      "Ġcollect": 5607,
      "Ġroot": 5608,
      "çī": 5609,
      "see": 5610,
      "Ġsec": 5611,
      "izes": 5612,
      "Ġtiss": 5613,
      "ãģĨ": 5614,
      "ĊĊĊ": 5615,
      "ICAg": 5616,
      "just": 5617,
      "Ġspeak": 5618,
      "ĠìĥĪë¡ľìļ´": 5619,
      "abetes": 5620,
      "Ġíĸ¥": 5621,
      "Ġgard": 5622,
      "Ġestablished": 5623,
      "vest": 5624,
      "Ġwindow": 5625,
      "undred": 5626,
      "Ġquickly": 5627,
      "Ġhumans": 5628,
      "bar": 5629,
      "())": 5630,
      "ĠDepartment": 5631,
      "ĠÏĮ": 5632,
      "Ġmis": 5633,
      "áº¡i": 5634,
      "ĠIndian": 5635,
      "Ã¡r": 5636,
      "cean": 5637,
      "gency": 5638,
      "Ġwalk": 5639,
      "Ġtrees": 5640,
      "Date": 5641,
      "Ġfoot": 5642,
      "Ġconstruct": 5643,
      "ĠÙĪØ§ÙĦ": 5644,
      "AAAA": 5645,
      "Ġcam": 5646,
      "ê·¸ëŀ¨": 5647,
      "ĠMus": 5648,
      "LO": 5649,
      "ĠOther": 5650,
      "Ġbroad": 5651,
      "ëĿ": 5652,
      "Ġstrateg": 5653,
      "Ã²": 5654,
      "Ġë°ķ": 5655,
      "iny": 5656,
      "Ġuseful": 5657,
      "íĻķ": 5658,
      "Ġsituation": 5659,
      "Ġdry": 5660,
      "ĠHar": 5661,
      "Ġbool": 5662,
      "Ġê¸°ìĹħ": 5663,
      "Ġreceived": 5664,
      "SE": 5665,
      "Ġuint": 5666,
      "Ã©m": 5667,
      "inate": 5668,
      "Ġhighly": 5669,
      "icht": 5670,
      "Ġmig": 5671,
      "II": 5672,
      "Result": 5673,
      "Ġsort": 5674,
      "format": 5675,
      "Ġê²ĥìŀħëĭĪëĭ¤": 5676,
      "Ed": 5677,
      "ĉpublic": 5678,
      "Ġho": 5679,
      "ĠChar": 5680,
      "cial": 5681,
      "joy": 5682,
      "å¹´": 5683,
      "bit": 5684,
      "'re": 5685,
      "_N": 5686,
      "Ġinfection": 5687,
      "Ġì§Ħíĸī": 5688,
      "Ġmilitary": 5689,
      "gr": 5690,
      "Ġbirth": 5691,
      "Ġê²ĥìľ¼ë¡ľ": 5692,
      "text": 5693,
      "Ġadminist": 5694,
      "ĠÐ°": 5695,
      "Ġeye": 5696,
      "prot": 5697,
      "ĠìĿ´ë¥¼": 5698,
      "Ġessay": 5699,
      "Ġlines": 5700,
      "izer": 5701,
      "hood": 5702,
      "Ġdemand": 5703,
      "ogen": 5704,
      "ii": 5705,
      "rael": 5706,
      "Ð¾Ð½": 5707,
      "Ġnews": 5708,
      "Ġsolar": 5709,
      "with": 5710,
      "ĠInternational": 5711,
      "cz": 5712,
      "Ġacid": 5713,
      "Ġaccur": 5714,
      "ham": 5715,
      "ifier": 5716,
      "ãĤī": 5717,
      "ĠSim": 5718,
      "Ġhá»": 5719,
      "Ġsymbol": 5720,
      "Ġofficial": 5721,
      "Ġ(!": 5722,
      "Ġbehind": 5723,
      "Ġimages": 5724,
      "pty": 5725,
      "stant": 5726,
      "Ġmá»Ļt": 5727,
      "efined": 5728,
      "version": 5729,
      "Ġhabit": 5730,
      "Ġcapital": 5731,
      "asi": 5732,
      "eller": 5733,
      "Ġê¸°ëĬ¥": 5734,
      "oring": 5735,
      "context": 5736,
      "Ġexercise": 5737,
      "Ġmemory": 5738,
      "Ġaim": 5739,
      "ãĤĤ": 5740,
      "ĠAfrica": 5741,
      "Ġsoon": 5742,
      "ĠSw": 5743,
      ".append": 5744,
      "Ġsevere": 5745,
      "Ġsupply": 5746,
      "des": 5747,
      "empty": 5748,
      "Ġleading": 5749,
      "Ġlocation": 5750,
      "ĠFrench": 5751,
      "/p": 5752,
      "Ġdon't": 5753,
      "ê´ĳ": 5754,
      "ney": 5755,
      "Ġfamilies": 5756,
      "ç§": 5757,
      "px": 5758,
      "íħľ": 5759,
      "Ġsche": 5760,
      "Ġpa": 5761,
      "ika": 5762,
      "Ġfun": 5763,
      "Ġprotein": 5764,
      "Us": 5765,
      "alam": 5766,
      "Î¶": 5767,
      "Ġdrink": 5768,
      "Ġselect": 5769,
      "¢°": 5770,
      "emplate": 5771,
      "Ġëĵľ": 5772,
      "ategory": 5773,
      "ĠDis": 5774,
      "Ġdouble": 5775,
      ":{": 5776,
      "ige": 5777,
      "atform": 5778,
      "ì§Ģë¥¼": 5779,
      "itis": 5780,
      "Ġpurpose": 5781,
      "Ġexact": 5782,
      "ìłķìĿĦ": 5783,
      "pite": 5784,
      ".html": 5785,
      "ëĭĺ": 5786,
      "efore": 5787,
      "ĠOct": 5788,
      "ë¡Ģ": 5789,
      "Ġwent": 5790,
      "Ġtid": 5791,
      "ìľµ": 5792,
      "ĠMarch": 5793,
      "Ġmount": 5794,
      "Ġris": 5795,
      "åĽ½": 5796,
      "Ġreflect": 5797,
      "Em": 5798,
      "ê²¬": 5799,
      "Ġpack": 5800,
      "ë¥ł": 5801,
      "ĠCalifornia": 5802,
      "ĠÎ±ÏĢÏĮ": 5803,
      "Ġalthough": 5804,
      "Ġmere": 5805,
      "Ġautom": 5806,
      "ìĭľê°Ħ": 5807,
      "Ġpredict": 5808,
      "ĠComp": 5809,
      "Param": 5810,
      "Ġrequires": 5811,
      "())Ċ": 5812,
      "Ġmember": 5813,
      "Ġjud": 5814,
      "ynam": 5815,
      "Ġstay": 5816,
      "ura": 5817,
      "Ã©n": 5818,
      "ilos": 5819,
      "ĠRed": 5820,
      "ĠØ¨Ø§": 5821,
      "default": 5822,
      "state": 5823,
      "list": 5824,
      "ĠAut": 5825,
      "ĠìĥģíĻ©": 5826,
      "ca": 5827,
      "ĠĠĠĠĠĊ": 5828,
      "Ġwhose": 5829,
      "Ġ);Ċ": 5830,
      "ĠMy": 5831,
      "ĠØ¹ÙĦÙī": 5832,
      "62": 5833,
      "Ġbeginning": 5834,
      "ë©´ìĦľ": 5835,
      "Ġê°Ģê²©": 5836,
      "ìĸ´ëĤ": 5837,
      "rab": 5838,
      "Ġvia": 5839,
      "186": 5840,
      "Ġcenter": 5841,
      "Î»Î»": 5842,
      "hens": 5843,
      "ØªØ±": 5844,
      "ologies": 5845,
      "Ġìĺģíĸ¥": 5846,
      "Ġtowards": 5847,
      "âĢĻve": 5848,
      "isms": 5849,
      "Ġspeed": 5850,
      "Ġdoctor": 5851,
      "Ġinitial": 5852,
      "Ä±r": 5853,
      "ĠDav": 5854,
      "equ": 5855,
      ".data": 5856,
      "Ġtask": 5857,
      "ĠSu": 5858,
      "Ġsustain": 5859,
      "ĠëķĮë¬¸ìĹĲ": 5860,
      "Ø§Ø¡": 5861,
      "ì¶Ķ": 5862,
      "Ġseems": 5863,
      "check": 5864,
      "iáº¿": 5865,
      "ìĿĳ": 5866,
      "\\xd": 5867,
      "board": 5868,
      "ìĿ´ëĵľ": 5869,
      ".to": 5870,
      "Ġlimited": 5871,
      "Ġminutes": 5872,
      ",i": 5873,
      "ptember": 5874,
      "where": 5875,
      "Ġoption": 5876,
      "ĠHer": 5877,
      "ĠHol": 5878,
      "Ġwide": 5879,
      "med": 5880,
      "....": 5881,
      "Rec": 5882,
      "-n": 5883,
      "Ġëį°ìĿ´íĦ°": 5884,
      "Ġboolean": 5885,
      "åĨ": 5886,
      "ëĵĿ": 5887,
      "izations": 5888,
      "ĥ½": 5889,
      "Ġcontroll": 5890,
      "ĠëĤ´ë": 5891,
      "Ġë¬¸íĻĶ": 5892,
      "airs": 5893,
      "ously": 5894,
      "Ã³w": 5895,
      "Ġê³łëł¤": 5896,
      "ë¢°": 5897,
      "Ġworkers": 5898,
      "case": 5899,
      "Ġcopy": 5900,
      "ĠÛĮ": 5901,
      "Ġê²°ê³¼": 5902,
      "SON": 5903,
      "inct": 5904,
      "Ġteaching": 5905,
      "Ġcalcul": 5906,
      "rote": 5907,
      "Ġstru": 5908,
      "-to": 5909,
      "Ġë°Ķë¡ľ": 5910,
      "ĠìłľíĴĪ": 5911,
      "Ġë¬´ë": 5912,
      "Ġuntuk": 5913,
      "400": 5914,
      "ÐºÐ¸": 5915,
      "Ġep": 5916,
      "Ut": 5917,
      "ìłĳ": 5918,
      "Ġnuc": 5919,
      "rame": 5920,
      "ipment": 5921,
      "Ġmeng": 5922,
      "uate": 5923,
      "Ġegy": 5924,
      "Ġdetect": 5925,
      "Ð¾Ð¶": 5926,
      "Ġscale": 5927,
      "Ġhon": 5928,
      "ÏİÎ½": 5929,
      "âĢĿ,": 5930,
      "ala": 5931,
      "Ġones": 5932,
      "âĢĻll": 5933,
      "Ġdepend": 5934,
      "ĠMc": 5935,
      "Ġhands": 5936,
      "Ġwebsite": 5937,
      "á»¯": 5938,
      "Ġclient": 5939,
      "];Ċ": 5940,
      "ëĿ½": 5941,
      "App": 5942,
      "Component": 5943,
      "aul": 5944,
      "Ġrates": 5945,
      "\\xe": 5946,
      "Ġfunc": 5947,
      "--------------------------------": 5948,
      "Łģ": 5949,
      "Ġobjects": 5950,
      "Ġëª»": 5951,
      "Ġfinancial": 5952,
      "ĠApril": 5953,
      "Ġsolution": 5954,
      "ĠAfrican": 5955,
      "ĠVal": 5956,
      "åĴ": 5957,
      "ì´Ī": 5958,
      "ÐµÐ¹": 5959,
      "Ġmoment": 5960,
      "engan": 5961,
      "ãĤĬ": 5962,
      "çĶ¨": 5963,
      "Ġtesting": 5964,
      "omb": 5965,
      "ĠìĤ¬ìĹħ": 5966,
      "rav": 5967,
      "ouch": 5968,
      "input": 5969,
      "Ġlost": 5970,
      "íı¬ì¸ł": 5971,
      "Color": 5972,
      "Ġìĭłì²Ń": 5973,
      "uries": 5974,
      "ĠkÃ¶": 5975,
      "Ġíĺķ": 5976,
      "Ġnode": 5977,
      "ashington": 5978,
      "ĠĠĠĠĠĠĊ": 5979,
      "orders": 5980,
      "_g": 5981,
      "but": 5982,
      "unch": 5983,
      "Ġdark": 5984,
      "ĠGerman": 5985,
      "rix": 5986,
      "Ġdecision": 5987,
      "Ġìĸ´ëĸ¤": 5988,
      "æ°": 5989,
      "ĠWeb": 5990,
      "adata": 5991,
      "ĠÃ¤r": 5992,
      "Ġprotection": 5993,
      "agement": 5994,
      "Ġwid": 5995,
      "ĠErr": 5996,
      "Ġmit": 5997,
      "Image": 5998,
      "mas": 5999,
      "Model": 6000,
      "outhern": 6001,
      "52": 6002,
      "æĶ": 6003,
      "rogen": 6004,
      "Ġdevices": 6005,
      "ì§ĢëĬĶ": 6006,
      "ë§Ĳ": 6007,
      "íķĺìĦ¸ìļĶ": 6008,
      "Ġthinking": 6009,
      "ĠÎ·": 6010,
      "Ġveh": 6011,
      "Ġinfluence": 6012,
      "Ġë¯¸êµŃ": 6013,
      "ĠFirst": 6014,
      "ald": 6015,
      "Ġfight": 6016,
      "Override": 6017,
      "Ġsequ": 6018,
      "position": 6019,
      "Gener": 6020,
      "End": 6021,
      "Ġcreating": 6022,
      "èĩ": 6023,
      "ĠëĲł": 6024,
      "cil": 6025,
      "Ġì°½": 6026,
      "craft": 6027,
      "-S": 6028,
      "itect": 6029,
      "Ġnegative": 6030,
      "emb": 6031,
      "ÏĦÎ¬": 6032,
      "ĠØ§ÙĦØ¹": 6033,
      "ĠAugust": 6034,
      "ette": 6035,
      "content": 6036,
      "Ġcosts": 6037,
      "ante": 6038,
      "Ġshape": 6039,
      "gress": 6040,
      "éģ": 6041,
      "ĠJune": 6042,
      "lier": 6043,
      "olve": 6044,
      "ulated": 6045,
      "Ġë¸Ķ": 6046,
      "sect": 6047,
      "Ġitem": 6048,
      "æł": 6049,
      "-e": 6050,
      "akan": 6051,
      "TP": 6052,
      "ĠÏĥÏħ": 6053,
      "mes": 6054,
      "Ġprocesses": 6055,
      "cons": 6056,
      "Ġprojects": 6057,
      "/c": 6058,
      "ĠÂ©": 6059,
      "options": 6060,
      "Ġcollection": 6061,
      "odies": 6062,
      "Ø§Ø¦": 6063,
      "map": 6064,
      "sole": 6065,
      "ĠìĿ´ëĬĶ": 6066,
      "Ġìº": 6067,
      "proto": 6068,
      "\"},": 6069,
      "Ġë³´ë": 6070,
      "iance": 6071,
      "Ġhundred": 6072,
      "ĠPark": 6073,
      "Ġgoal": 6074,
      "Ġproperties": 6075,
      "Ġê·¸ë¦¬ê³ł": 6076,
      "Ġcolon": 6077,
      "ĠëįĶìļ±": 6078,
      "Ġmid": 6079,
      "Ġbes": 6080,
      "_list": 6081,
      "ocr": 6082,
      "(new": 6083,
      "Å¾e": 6084,
      "Ġwaste": 6085,
      "estic": 6086,
      "ìĦľëĬĶ": 6087,
      "ä¸Ĭ": 6088,
      "umer": 6089,
      "eline": 6090,
      "Comm": 6091,
      "Ġimportance": 6092,
      "ĠÐ»": 6093,
      "ĠëĺĲëĬĶ": 6094,
      "Ġì¤ĳìļĶíķ©ëĭĪëĭ¤": 6095,
      "ĠìĿ´íķ´": 6096,
      "Ġcarry": 6097,
      "DA": 6098,
      "CE": 6099,
      "įëĭĪëĭ¤": 6100,
      "Handler": 6101,
      "Ġagricult": 6102,
      "oto": 6103,
      "Ġdescribed": 6104,
      "ĠAlthough": 6105,
      "Ġadults": 6106,
      "lor": 6107,
      "ĠRiver": 6108,
      "150": 6109,
      "arshal": 6110,
      "...Ċ": 6111,
      "Ġvirt": 6112,
      "Ġalg": 6113,
      "ÙĦÙĬ": 6114,
      "Ġqual": 6115,
      "Ġmole": 6116,
      "Ġweeks": 6117,
      "Ġroom": 6118,
      "Ã©r": 6119,
      "Ġlabel": 6120,
      "ÚĨ": 6121,
      "Ġsites": 6122,
      "Ġmonitor": 6123,
      "Ġrapid": 6124,
      "Options": 6125,
      "idents": 6126,
      "Ġmiss": 6127,
      "Ġmiddle": 6128,
      "reme": 6129,
      "Ġappropriate": 6130,
      "Ġenjoy": 6131,
      "ename": 6132,
      "Ġjson": 6133,
      "ĠJesus": 6134,
      "ĠPost": 6135,
      "ĠHistory": 6136,
      "coh": 6137,
      "Ġlargest": 6138,
      "ĠëĤ´ìļ©": 6139,
      "ĠTechn": 6140,
      "Ġcommunication": 6141,
      "Ġdrug": 6142,
      "Ġusers": 6143,
      "Ġnearly": 6144,
      "Ġì¹´ì§Ģëħ¸": 6145,
      "89": 6146,
      "ìŁģ": 6147,
      "ë°Ľ": 6148,
      "Ġitems": 6149,
      "dy": 6150,
      "hand": 6151,
      "PI": 6152,
      "Ġseason": 6153,
      "ĠAssoci": 6154,
      "ĠëĦ¤": 6155,
      "illing": 6156,
      "Ġbrought": 6157,
      "Ġvon": 6158,
      "inese": 6159,
      "rypt": 6160,
      "ellig": 6161,
      "itable": 6162,
      "ĠHere": 6163,
      "ÏĦÎ±Î¹": 6164,
      "aught": 6165,
      "(x": 6166,
      "189": 6167,
      "Ġpet": 6168,
      "osa": 6169,
      "orthern": 6170,
      "å¥": 6171,
      "Ġplaces": 6172,
      "ĠFrom": 6173,
      "ìŀĲìĿĺ": 6174,
      "actory": 6175,
      "Ġìłķë³´ë¥¼": 6176,
      "ĠSee": 6177,
      "abil": 6178,
      "Ġstore": 6179,
      "ÙĦØ§": 6180,
      "Ġburn": 6181,
      "ê·ľ": 6182,
      "Ġbasis": 6183,
      "reek": 6184,
      "Ġancient": 6185,
      "()ĊĊ": 6186,
      "Nd": 6187,
      "ĠÎµÏĢ": 6188,
      "Ġê¿": 6189,
      "down": 6190,
      ",this": 6191,
      "\\xa": 6192,
      "Ġreach": 6193,
      "´ëıĦ": 6194,
      "Ġtrack": 6195,
      "Ġê·¸ëŁ¬": 6196,
      "Ġmut": 6197,
      "asks": 6198,
      "Ġìľłì§Ģ": 6199,
      "ĠUse": 6200,
      "ĠÏĩ": 6201,
      "ses": 6202,
      "ĠÐµ": 6203,
      "Ġinterpre": 6204,
      "ĠëĪĦ": 6205,
      "Ġstage": 6206,
      "Ġcontinu": 6207,
      "();ĊĊ": 6208,
      "Ġefforts": 6209,
      "Ġsv": 6210,
      "Ġì¢ĭìĿĢ": 6211,
      "ØªÙĩ": 6212,
      "ende": 6213,
      "ÎµÏģ": 6214,
      "Ġfields": 6215,
      "Ã¥r": 6216,
      "ĠÐ¾ÑĤ": 6217,
      "Ġleaves": 6218,
      "Ġshift": 6219,
      "Ġvict": 6220,
      "Ġcatch": 6221,
      "Ġimag": 6222,
      "Ġtold": 6223,
      "Ġheight": 6224,
      "ä¸º": 6225,
      "Ġnem": 6226,
      "ario": 6227,
      "Ġì§ĢëĤľ": 6228,
      "ĠØµ": 6229,
      "íħĲ": 6230,
      "Ġhogy": 6231,
      "åĴĮ": 6232,
      "ji": 6233,
      "ë°±": 6234,
      "Ġestablish": 6235,
      "Ġtitle": 6236,
      "(err": 6237,
      "ĠDay": 6238,
      "Ġbecomes": 6239,
      "Ġë¸Į": 6240,
      "ëĲł": 6241,
      "Ġlocated": 6242,
      "enge": 6243,
      "ias": 6244,
      "Ð²Ð¸": 6245,
      "Ġmention": 6246,
      "Ġnothing": 6247,
      "Ġì¹ĺë£Į": 6248,
      "ye": 6249,
      "ĠObject": 6250,
      "ĠCopyright": 6251,
      "Call": 6252,
      "Ġdead": 6253,
      "================": 6254,
      "Ġ\"\"\"Ċ": 6255,
      "rees": 6256,
      "Ġdriv": 6257,
      "ramework": 6258,
      "Ġcultural": 6259,
      "ondon": 6260,
      ".v": 6261,
      "otal": 6262,
      "eler": 6263,
      "Ġtechniques": 6264,
      "Ģë¡ľ": 6265,
      "-se": 6266,
      ".a": 6267,
      "ł¤": 6268,
      "Ġnorth": 6269,
      "ements": 6270,
      "ì¹¨": 6271,
      "Ġcook": 6272,
      "ë¦¬ë¥¼": 6273,
      "attr": 6274,
      "ensity": 6275,
      "ĠëĮĢíĳľ": 6276,
      "ÑģÑĤÐ¸": 6277,
      "Ġapplications": 6278,
      "Ã¼l": 6279,
      "urb": 6280,
      "å¿": 6281,
      "image": 6282,
      "_data": 6283,
      "ebru": 6284,
      "Ġê°ľë°ľ": 6285,
      "ëĿ¼ê³ł": 6286,
      "Ġlegal": 6287,
      "wise": 6288,
      "Ġrule": 6289,
      ".ch": 6290,
      "ĠCanada": 6291,
      "nya": 6292,
      "Ġìļ´ìĺģ": 6293,
      "ria": 6294,
      "level": 6295,
      "ĠJuly": 6296,
      "á»ĭ": 6297,
      "stances": 6298,
      "Ġremove": 6299,
      "ora": 6300,
      "Ġmob": 6301,
      "ovember": 6302,
      "Ġgraph": 6303,
      "ĠBar": 6304,
      "Ġborn": 6305,
      "Start": 6306,
      "180": 6307,
      "([": 6308,
      "ĠJournal": 6309,
      "hest": 6310,
      "Ġì£¼ìļĶ": 6311,
      "expected": 6312,
      "Ġfra": 6313,
      "cember": 6314,
      "ĠCity": 6315,
      "ĠAmericans": 6316,
      "Manager": 6317,
      "Ġremains": 6318,
      "Ġìĭłë¢°": 6319,
      "Ġreceive": 6320,
      "Ġcele": 6321,
      "BC": 6322,
      "tings": 6323,
      "struct": 6324,
      "ĠSet": 6325,
      "¨ìĸ´": 6326,
      "-M": 6327,
      "è§": 6328,
      "Ġanaly": 6329,
      "Ġlaws": 6330,
      "encies": 6331,
      "Ġbacteria": 6332,
      "ĠEngland": 6333,
      "atal": 6334,
      "Ġtypically": 6335,
      "Ġcool": 6336,
      "Ġcru": 6337,
      "Ġdigital": 6338,
      "inated": 6339,
      "Ġstra": 6340,
      "ìĹĩ": 6341,
      "ĠPresident": 6342,
      "ospital": 6343,
      "ÑĩÐµ": 6344,
      "Ġdro": 6345,
      "ÎµÎ½": 6346,
      "Ġconstit": 6347,
      "Ġdengan": 6348,
      "ĠWashington": 6349,
      "Ġgives": 6350,
      "ĠÐ¿ÑĢÐ¸": 6351,
      "omy": 6352,
      "Ġfit": 6353,
      "57": 6354,
      "Ġbeaut": 6355,
      "Ġcurrently": 6356,
      "ĠĠĠĠĠĠĠĊ": 6357,
      "Ġunit": 6358,
      "Content": 6359,
      "Ġanything": 6360,
      "Ġadvant": 6361,
      ".assert": 6362,
      "Ġeyes": 6363,
      "Ġbehavi": 6364,
      "Ġhope": 6365,
      "éĻ": 6366,
      "Ġrare": 6367,
      "ĠIsrael": 6368,
      "ë¯": 6369,
      "Ġsurround": 6370,
      "Ġrob": 6371,
      "Ġawait": 6372,
      "Ġconstruction": 6373,
      "ĠChristian": 6374,
      "ĠìĥĿíĻľ": 6375,
      "Ġì¤Ģë¹Ħ": 6376,
      "irt": 6377,
      "Ġfather": 6378,
      "ä»¥": 6379,
      "Ġë¹Ħìļ©": 6380,
      "ĠJe": 6381,
      "cast": 6382,
      "ker": 6383,
      "ĠÐºÐ°": 6384,
      "Det": 6385,
      "»ê²Į": 6386,
      "respon": 6387,
      "ributes": 6388,
      "Ġcommit": 6389,
      "Ġë³ĢíĻĶ": 6390,
      "Ġreligious": 6391,
      "Ø§Ø´": 6392,
      "Ð¾Ð»ÑĮ": 6393,
      "ĠìĪľ": 6394,
      "ĠÎ³Î¹Î±": 6395,
      "Ġteacher": 6396,
      "ayout": 6397,
      "query": 6398,
      "Ġexamples": 6399,
      "Ġweak": 6400,
      "ĠEducation": 6401,
      "Act": 6402,
      "ì·¨": 6403,
      "-term": 6404,
      "Ġsummer": 6405,
      "ords": 6406,
      "Ġsave": 6407,
      "ĠOF": 6408,
      "ĠPress": 6409,
      "then": 6410,
      "ãĢĮ": 6411,
      "Ġtrade": 6412,
      "Ð¾Ðº": 6413,
      "ĉĠ": 6414,
      "Ġconflic": 6415,
      "Ġbed": 6416,
      "Update": 6417,
      "span": 6418,
      "Ġinstr": 6419,
      "ĠÐ¾Ð±": 6420,
      "Ġanti": 6421,
      "Ġsitu": 6422,
      "53": 6423,
      "Ĥ´": 6424,
      "Ġnp": 6425,
      "augh": 6426,
      "ãĢį": 6427,
      "oo": 6428,
      "update": 6429,
      "Token": 6430,
      "Ġchoose": 6431,
      "mark": 6432,
      "ĠëłĪ": 6433,
      "Ġbey": 6434,
      "ëŀ«": 6435,
      "áº¯": 6436,
      "Ġfuel": 6437,
      "Ġeverything": 6438,
      "Ġsouth": 6439,
      "ìĺĢëĭ¤": 6440,
      "xb": 6441,
      "Ġallowed": 6442,
      "Ġperm": 6443,
      "Ġë¹ł": 6444,
      "fe": 6445,
      "½ê²Į": 6446,
      "Ġsaw": 6447,
      ".id": 6448,
      "Ġrele": 6449,
      "ĠLear": 6450,
      "Ġegg": 6451,
      "(function": 6452,
      "Ġcitiz": 6453,
      "ìĦ±ìĿ´": 6454,
      "į¼": 6455,
      "ì§ķ": 6456,
      "ĠÎ¸": 6457,
      "ĠBi": 6458,
      "Ġseek": 6459,
      "oday": 6460,
      "emy": 6461,
      "Ġconstant": 6462,
      "ëī´ìĬ¤": 6463,
      "icate": 6464,
      "Ġcolumn": 6465,
      "188": 6466,
      "ĠâĢ¢": 6467,
      "Ġë¬´ìĹĩ": 6468,
      "eder": 6469,
      "Ġdied": 6470,
      "Ġhimself": 6471,
      "ĠCong": 6472,
      "ialog": 6473,
      "Ġcop": 6474,
      "box": 6475,
      "scri": 6476,
      "lin": 6477,
      "Ġrules": 6478,
      "ìĬ¤íħľ": 6479,
      "Ġactual": 6480,
      "ĠCommun": 6481,
      "Ġenh": 6482,
      "Ã¡g": 6483,
      "inci": 6484,
      "><": 6485,
      "comp": 6486,
      ".se": 6487,
      "rome": 6488,
      "51": 6489,
      "Source": 6490,
      "ĠĠĠĠĠĠĠĠĊ": 6491,
      "force": 6492,
      "ĠGovern": 6493,
      "ĠDet": 6494,
      "ì¡´": 6495,
      "Ġhyp": 6496,
      "IR": 6497,
      "ami": 6498,
      "ĠPat": 6499,
      "Ġbox": 6500,
      "Ġcold": 6501,
      "alle": 6502,
      "Ġmiles": 6503,
      "ĠAng": 6504,
      "sl": 6505,
      "ë´": 6506,
      "ä¿": 6507,
      "ĠÏĢÎ¿Ïħ": 6508,
      "Ġextrem": 6509,
      "ÙĪÙħ": 6510,
      "aste": 6511,
      "aled": 6512,
      "Ġtro": 6513,
      "Ġsend": 6514,
      "Number": 6515,
      "])Ċ": 6516,
      "web": 6517,
      "Ġì´Ŀ": 6518,
      "Ġcu": 6519,
      "Ġrecently": 6520,
      "PS": 6521,
      "Æ°á»£c": 6522,
      "ĠÃ§": 6523,
      "Ø±ÙĬ": 6524,
      "ao": 6525,
      "Ġbuy": 6526,
      "Ġeating": 6527,
      "ÎŃÏĤ": 6528,
      "ĠìĿ¼ë°ĺ": 6529,
      "ĠëĬĲ": 6530,
      "ĠOf": 6531,
      "Ġresponsible": 6532,
      "Ġconsequ": 6533,
      "Ġaffected": 6534,
      "Ġpractices": 6535,
      "Ġenter": 6536,
      "_B": 6537,
      "Ġwat": 6538,
      "á»±": 6539,
      "Ġìķŀ": 6540,
      "Ġdefined": 6541,
      "Ġtherapy": 6542,
      "ffff": 6543,
      "Ġrock": 6544,
      "åĳ": 6545,
      "ĠìķĮìķĦë³´": 6546,
      "ĠSan": 6547,
      "Ġì¶Ķê°Ģ": 6548,
      "array": 6549,
      "ë³´ëĭ¤": 6550,
      "·°": 6551,
      "Ġreasons": 6552,
      "Ġdeal": 6553,
      "Ġfriend": 6554,
      "Ġvisual": 6555,
      "Ġorganization": 6556,
      "ande": 6557,
      "CT": 6558,
      "otic": 6559,
      "Ġauto": 6560,
      "Ġik": 6561,
      "ete": 6562,
      "Ġfederal": 6563,
      "EF": 6564,
      "Ġequipment": 6565,
      "Ġë¯¼": 6566,
      "æĬ": 6567,
      "ĠÃº": 6568,
      "Ġhous": 6569,
      "Ġcoast": 6570,
      "Ġíĺĳ": 6571,
      "open": 6572,
      ":!": 6573,
      "ĠBlack": 6574,
      "These": 6575,
      "Ġnorm": 6576,
      "akt": 6577,
      "´ëıĻ": 6578,
      "Ġwire": 6579,
      "Ġspirit": 6580,
      "cohol": 6581,
      "ĠData": 6582,
      "ĠDevelop": 6583,
      "Ġfollowed": 6584,
      "ìĺ¨": 6585,
      "ĠíķĦìļĶíķľ": 6586,
      "etwork": 6587,
      "ä¸ª": 6588,
      "Ġsugar": 6589,
      "Ð¾Ñģ": 6590,
      "Ġbeyond": 6591,
      "ëģ": 6592,
      "oub": 6593,
      "oe": 6594,
      "Ġproviding": 6595,
      "Ġìłľê³µíķ©ëĭĪëĭ¤": 6596,
      "pc": 6597,
      "Æ°á»Ŀi": 6598,
      "Ġkon": 6599,
      "race": 6600,
      ".H": 6601,
      "Ġmix": 6602,
      "ĠSeptember": 6603,
      "PA": 6604,
      ")),": 6605,
      "Ġforces": 6606,
      "ìĹĪìĬµëĭĪëĭ¤": 6607,
      "Ġcompl": 6608,
      ")},": 6609,
      "Ġauth": 6610,
      "Ġolder": 6611,
      "EST": 6612,
      "Ġice": 6613,
      "Ġexisting": 6614,
      "íıī": 6615,
      "-year": 6616,
      "Ġíı¬íķ¨": 6617,
      "std": 6618,
      "nces": 6619,
      "riter": 6620,
      "Ġweather": 6621,
      "Ġexplain": 6622,
      "á»Ł": 6623,
      "Ġcompar": 6624,
      "xc": 6625,
      "ë¦¬ëĬĶ": 6626,
      "æĹ¥": 6627,
      "Ġacqu": 6628,
      "mosp": 6629,
      "cher": 6630,
      "Ġë¹ĦêµĲ": 6631,
      "nie": 6632,
      "ìĿ´ê³ł": 6633,
      "ĠChurch": 6634,
      "Ġbenefit": 6635,
      "isation": 6636,
      "ëĿ¼ëĬĶ": 6637,
      ")čĊ": 6638,
      "Ġdos": 6639,
      "ĠìŀĪëıĦë¡Ŀ": 6640,
      "){Ċ": 6641,
      "Ġíŀ": 6642,
      "Ã¬nh": 6643,
      "Ġprofessional": 6644,
      "fs": 6645,
      "Ġeconomy": 6646,
      "Ġasked": 6647,
      "Ġsurg": 6648,
      "ãĤ¹": 6649,
      "Ġopportunity": 6650,
      "ĠInter": 6651,
      "lements": 6652,
      "Ġvill": 6653,
      "ĠìĨĮê°ľ": 6654,
      "EO": 6655,
      "Ġsuccessful": 6656,
      "istor": 6657,
      "185": 6658,
      "ê²ĥ": 6659,
      "Ġìĸ´ëĸ»ê²Į": 6660,
      "ÑĦ": 6661,
      "Ã½ch": 6662,
      "Ġdiabetes": 6663,
      "DF": 6664,
      "ëĦ¤": 6665,
      "apping": 6666,
      "Ġrecommend": 6667,
      "Ã±": 6668,
      "Ġoverall": 6669,
      "py": 6670,
      "ras": 6671,
      "Ġsteps": 6672,
      "Ġactions": 6673,
      "HO": 6674,
      "itter": 6675,
      "íı¼": 6676,
      "Ġformat": 6677,
      "inding": 6678,
      "Ã¼n": 6679,
      "Per": 6680,
      "Ġê¶Į": 6681,
      "ìĽĢìĿ´": 6682,
      "Ġgain": 6683,
      "íĪ¬": 6684,
      "ĠSub": 6685,
      "Ġmemb": 6686,
      "Ġtrying": 6687,
      "Î¹Ïĥ": 6688,
      "ĠsiÄĻ": 6689,
      "Ġwrong": 6690,
      "oma": 6691,
      "iá»ģ": 6692,
      "ingu": 6693,
      "ests": 6694,
      "Ġprice": 6695,
      "lamm": 6696,
      "usion": 6697,
      "Ġfunctions": 6698,
      "Ġking": 6699,
      "Ġcomponent": 6700,
      "ĠProgram": 6701,
      "xi": 6702,
      "Ġswe": 6703,
      "ota": 6704,
      "Ġesc": 6705,
      "Ġexposure": 6706,
      "Ġìļ©": 6707,
      "ati": 6708,
      "/d": 6709,
      "åİ": 6710,
      "While": 6711,
      "rief": 6712,
      "Ġmeasures": 6713,
      "ĠArch": 6714,
      "ĠInst": 6715,
      "plies": 6716,
      "FB": 6717,
      ".sh": 6718,
      "Ġconnection": 6719,
      "GL": 6720,
      "âĢĿ.": 6721,
      "Ġoccurs": 6722,
      "Ġsmaller": 6723,
      "Aut": 6724,
      "ĠGen": 6725,
      "Server": 6726,
      "Ġneigh": 6727,
      "Ġnav": 6728,
      "ë²Į": 6729,
      "á»©": 6730,
      "Ð³Ð¾": 6731,
      "Ġign": 6732,
      "Ġstrength": 6733,
      "ìķł": 6734,
      "Ġperfect": 6735,
      "Ġyourself": 6736,
      "oration": 6737,
      "Ġbud": 6738,
      "Ġdegree": 6739,
      "Ġult": 6740,
      "Ø§Ùģ": 6741,
      "ĠëĲ©ëĭĪëĭ¤": 6742,
      "Ġteeth": 6743,
      "Ġfear": 6744,
      "Ġtransform": 6745,
      "Ġchanged": 6746,
      "td": 6747,
      "ãģĤ": 6748,
      "Ġthrow": 6749,
      "Ġdifferences": 6750,
      "56": 6751,
      "uint": 6752,
      "icip": 6753,
      "bal": 6754,
      "Ġstandards": 6755,
      "nÃ©": 6756,
      "remove": 6757,
      "Ġpurch": 6758,
      "(v": 6759,
      "ìĿ´ëĬĶ": 6760,
      "ĠOur": 6761,
      "ĠkhÃ´ng": 6762,
      "ĠGeneral": 6763,
      "Ġdetails": 6764,
      "Ġuns": 6765,
      "Ġnamed": 6766,
      "ĠëĲľ": 6767,
      "ĠHigh": 6768,
      "Ġalone": 6769,
      "abilities": 6770,
      "alm": 6771,
      "Ġapplied": 6772,
      "ĠChinese": 6773,
      "Ø±ÙĪ": 6774,
      "ĠcÃ¡c": 6775,
      "Ġnote": 6776,
      "Instance": 6777,
      "Ġfilm": 6778,
      "Ġstar": 6779,
      "Ġrat": 6780,
      "ê²Ģ": 6781,
      ".de": 6782,
      "parse": 6783,
      "ë¶Ī": 6784,
      ".value": 6785,
      "orge": 6786,
      "upport": 6787,
      "ëŁ°": 6788,
      "Ġfmt": 6789,
      "ĠGreat": 6790,
      "Ġforward": 6791,
      "typeof": 6792,
      ",a": 6793,
      "Ġpun": 6794,
      "After": 6795,
      "ĠCounty": 6796,
      "187": 6797,
      "Ġpregn": 6798,
      "like": 6799,
      "Ġpolic": 6800,
      "ìĦ¼íĦ°": 6801,
      "ĉb": 6802,
      "ĠìĹ¬íĸī": 6803,
      "ship": 6804,
      "ani": 6805,
      "ĠDNA": 6806,
      "Ġeveryone": 6807,
      "ĠJanuary": 6808,
      "\"}": 6809,
      "ì§¸": 6810,
      "Ġreference": 6811,
      "Ġrise": 6812,
      "Ġmachine": 6813,
      "ĠThen": 6814,
      "Ġsou": 6815,
      "Point": 6816,
      "Ä±nd": 6817,
      "ĉd": 6818,
      "Ġmatch": 6819,
      "left": 6820,
      "Button": 6821,
      "ĠØ²": 6822,
      "ÃŃa": 6823,
      "Ġplanet": 6824,
      "Ġemail": 6825,
      "ĠìķĦëĭĪëĿ¼": 6826,
      "Ġequal": 6827,
      "Ġleave": 6828,
      "ti": 6829,
      "Ġâĸ": 6830,
      "íħĲì¸ł": 6831,
      "Ġwoman": 6832,
      "Ġdas": 6833,
      "Ã¡m": 6834,
      "ĠOctober": 6835,
      ".y": 6836,
      "Builder": 6837,
      "Ġëĵ±ìĿĦ": 6838,
      "Ġíķĺì§Ģë§Į": 6839,
      "enu": 6840,
      ".name": 6841,
      "cious": 6842,
      ".r": 6843,
      "/m": 6844,
      "Ġcompletely": 6845,
      "Ġpour": 6846,
      "54": 6847,
      "ĠEven": 6848,
      "Ġdistance": 6849,
      "Ġgoes": 6850,
      "Ġìµľê·¼": 6851,
      "ĠâĢ¦": 6852,
      "hr": 6853,
      "Ġformer": 6854,
      "Ġrepe": 6855,
      "Ġíĥľ": 6856,
      "Ġjoint": 6857,
      "Ð´Ðµ": 6858,
      "ĠLondon": 6859,
      "ĠVol": 6860,
      "ouncil": 6861,
      "Ġsample": 6862,
      "ĠNow": 6863,
      "Ġfactor": 6864,
      "Ġargs": 6865,
      "Ġcommerc": 6866,
      "Ġearlier": 6867,
      "ĠÙĩØ§ÛĮ": 6868,
      "ĠUN": 6869,
      "Ġwrote": 6870,
      "Ġdrugs": 6871,
      "ĠíħĮ": 6872,
      "ĠìļĶìĨĮ": 6873,
      "enses": 6874,
      "Ġrich": 6875,
      "çĶŁ": 6876,
      "Ġbillion": 6877,
      "Ġwinter": 6878,
      "Ġmas": 6879,
      "ÑĩÐ¸": 6880,
      "Ġfeature": 6881,
      "erences": 6882,
      "arts": 6883,
      "ĠMex": 6884,
      "Ġserver": 6885,
      "ĠÎ²": 6886,
      "Ġdirection": 6887,
      "Ġapprox": 6888,
      "oding": 6889,
      "water": 6890,
      "Ġoccup": 6891,
      "ĠìŀĪìĿĦ": 6892,
      "pped": 6893,
      "Ġguid": 6894,
      "rint": 6895,
      "=!": 6896,
      "related": 6897,
      "Ġjak": 6898,
      "ĠCour": 6899,
      "Ġcomponents": 6900,
      "Ġtrong": 6901,
      "Ġrunning": 6902,
      "ĠOR": 6903,
      ">(": 6904,
      "ĠìĬ¤íı¬ì¸ł": 6905,
      "Ġreduced": 6906,
      "ĠìŀĲëıĻ": 6907,
      "Î¿Î½": 6908,
      "-A": 6909,
      "ê°Ģì§Ģ": 6910,
      "Types": 6911,
      "Ġpi": 6912,
      "ëĬĶëį°": 6913,
      "Ġgenetic": 6914,
      "public": 6915,
      "Ġgir": 6916,
      "rupt": 6917,
      "plications": 6918,
      "Ġune": 6919,
      "Ġidentified": 6920,
      "ï¼ī": 6921,
      "ĠÄĳÆ°á»£c": 6922,
      "Ġpassed": 6923,
      "link": 6924,
      "nes": 6925,
      "ĠST": 6926,
      "å±": 6927,
      "ĠíĻĪ": 6928,
      "ĠKore": 6929,
      "Ġsen": 6930,
      "ĠíĶĦë¡ľê·¸ëŀ¨": 6931,
      "ê·¹": 6932,
      "Ġinteresting": 6933,
      "more": 6934,
      ".on": 6935,
      "ÏģÎ¬": 6936,
      "ĠPublic": 6937,
      "ĠAccording": 6938,
      "riev": 6939,
      "ania": 6940,
      "è¿Ļ": 6941,
      "ares": 6942,
      "Ġelectr": 6943,
      "idden": 6944,
      "ĉthis": 6945,
      "ĠRef": 6946,
      "Ġnie": 6947,
      "Ġê²½ê¸°": 6948,
      "ĠEast": 6949,
      "Ġbirds": 6950,
      "Ġì½ĺ": 6951,
      "åĩº": 6952,
      "Ġplaced": 6953,
      "Ġcorn": 6954,
      "(!": 6955,
      "76": 6956,
      "Ġ->": 6957,
      "Ġincor": 6958,
      "atin": 6959,
      "Ġbound": 6960,
      "Ġexpand": 6961,
      "Ġì¡": 6962,
      "Ġapply": 6963,
      "Ġcapacity": 6964,
      "yr": 6965,
      "ï¼Ī": 6966,
      "Ð¾Ð·": 6967,
      "Stream": 6968,
      "ees": 6969,
      "Ġhistorical": 6970,
      "è¡Į": 6971,
      "Ġfiles": 6972,
      "ĠíĻľëıĻ": 6973,
      "ĠìĿ´ìķ¼": 6974,
      "ga": 6975,
      "ĠìĦ±ìŀ¥": 6976,
      "Resource": 6977,
      "Ġcontract": 6978,
      "ë¡¯": 6979,
      "ibly": 6980,
      "omas": 6981,
      "Ġì§ĢìĨį": 6982,
      "ĠìĿ´ìľł": 6983,
      "\"github": 6984,
      "ĠFin": 6985,
      "ëŀ«íı¼": 6986,
      "kin": 6987,
      "Var": 6988,
      "ìĤ¬ë¥¼": 6989,
      "Ġstim": 6990,
      "Ġrain": 6991,
      "erial": 6992,
      "Ġspring": 6993,
      "Ġì¹ľ": 6994,
      "Ġcommonly": 6995,
      "raz": 6996,
      "ÑĩÐ°": 6997,
      "ĠMat": 6998,
      "åī": 6999,
      "arian": 7000,
      "Ð¼Ð°": 7001,
      "Ġë¨¹": 7002,
      "ĠBook": 7003,
      "None": 7004,
      "Ġtox": 7005,
      "Ø¹Ø¯": 7006,
      ".$": 7007,
      "Ġlib": 7008,
      "Ġassist": 7009,
      "Ġchoice": 7010,
      "aign": 7011,
      "clusion": 7012,
      "120": 7013,
      "Ġacad": 7014,
      "´ë¦¬": 7015,
      "Ġcoming": 7016,
      "ÐµÐ½Ð¸Ñı": 7017,
      "https": 7018,
      "ëĬĺ": 7019,
      "MS": 7020,
      "ëĪ": 7021,
      "ĠíķĦìĪĺ": 7022,
      "ĉĉĉĉĉĉ": 7023,
      "enty": 7024,
      "Ķëĭ¤": 7025,
      "çİ": 7026,
      "Ġdoesn": 7027,
      "Ġbackground": 7028,
      "éĿ": 7029,
      "ÛĮÙħ": 7030,
      "-pro": 7031,
      "Ġdistributed": 7032,
      "ln": 7033,
      "Action": 7034,
      "Ð´Ð¸": 7035,
      "+\"": 7036,
      "Ġgold": 7037,
      "ĠíĥĢ": 7038,
      "_v": 7039,
      "Ġfruit": 7040,
      "ESS": 7041,
      "Ġeffic": 7042,
      "Spec": 7043,
      "hi": 7044,
      "ìŀĲê°Ģ": 7045,
      "Įĵ": 7046,
      "ĠUp": 7047,
      "Ċ//": 7048,
      "emp": 7049,
      "ptr": 7050,
      ".Errorf": 7051,
      "aint": 7052,
      "reedom": 7053,
      "101": 7054,
      "Ġtransfer": 7055,
      "Ġblue": 7056,
      "Ġshowed": 7057,
      "Rep": 7058,
      "Ġantib": 7059,
      "gin": 7060,
      "Ġfavor": 7061,
      "Ġdans": 7062,
      "ĠMark": 7063,
      "Ġpresence": 7064,
      "184": 7065,
      "Ret": 7066,
      "ï¼ļ": 7067,
      "Ġpowerful": 7068,
      "Ġterr": 7069,
      "ebruary": 7070,
      "Ġeight": 7071,
      "Ãły": 7072,
      "ĠMod": 7073,
      "road": 7074,
      "Ġarr": 7075,
      "Î¿ÏħÎ½": 7076,
      "ìĹ´": 7077,
      "ido": 7078,
      "orb": 7079,
      "æŀ": 7080,
      "ĠÐ±Ñĭ": 7081,
      "Ġdiscovered": 7082,
      "phas": 7083,
      "Ġfair": 7084,
      "ĠJust": 7085,
      "roller": 7086,
      "Some": 7087,
      "Ġfriends": 7088,
      "ĠNovember": 7089,
      "á»ĩ": 7090,
      "ĠìĿĺë¯¸": 7091,
      "Ġarray": 7092,
      "aya": 7093,
      "ĠDon": 7094,
      "Ġíķ©": 7095,
      "request": 7096,
      "Ġcontinued": 7097,
      "Ġraise": 7098,
      "ĠDecember": 7099,
      "Ġillust": 7100,
      "ijn": 7101,
      "dis": 7102,
      "_size": 7103,
      "Ġfloat": 7104,
      "Ġoperation": 7105,
      "Ġpatterns": 7106,
      "ĠEgy": 7107,
      "ados": 7108,
      "Ġrot": 7109,
      "ĠAre": 7110,
      "PL": 7111,
      "ĠSur": 7112,
      "Ġê³¼ìłķ": 7113,
      "omit": 7114,
      "life": 7115,
      "output": 7116,
      "ĠUnion": 7117,
      "hemat": 7118,
      "Ġmajority": 7119,
      "xx": 7120,
      "Listener": 7121,
      "Ġemissions": 7122,
      "ĠNews": 7123,
      "Ġprotected": 7124,
      "cs": 7125,
      "Buffer": 7126,
      "Dis": 7127,
      "ãģ¦ãģĦ": 7128,
      "Ġimmune": 7129,
      "ĠíĮ¨": 7130,
      "Ġdestroy": 7131,
      "sub": 7132,
      "dated": 7133,
      "anges": 7134,
      "-.": 7135,
      "ĠLaw": 7136,
      "Ġìµľìĭł": 7137,
      "ows": 7138,
      "ĠÄį": 7139,
      "Ġpromot": 7140,
      "Ġax": 7141,
      "Pol": 7142,
      "response": 7143,
      "Ġplus": 7144,
      "roke": 7145,
      "ëĮĢë¡ľ": 7146,
      "Ġfully": 7147,
      "ä¼ļ": 7148,
      "ĠRel": 7149,
      "ÙİÙĳ": 7150,
      "Î¿Î»": 7151,
      "stream": 7152,
      "client": 7153,
      "ë§ī": 7154,
      "áº¿t": 7155,
      "Ġnative": 7156,
      "Ġ>=": 7157,
      "ĠDi": 7158,
      "ĠLog": 7159,
      "Ġrespond": 7160,
      "Method": 7161,
      "ĠProf": 7162,
      "ë·°": 7163,
      "ì°°": 7164,
      "Ġbaby": 7165,
      "ĠAir": 7166,
      "Fl": 7167,
      "Ġinternal": 7168,
      ",b": 7169,
      "Ġformed": 7170,
      "Ã¡k": 7171,
      "ket": 7172,
      "Ġiniti": 7173,
      "Ġsyn": 7174,
      "ĠService": 7175,
      "ĠPort": 7176,
      "ÙĬØ¯": 7177,
      ",o": 7178,
      "Ġëª¨ëĳĲ": 7179,
      "Ġphilos": 7180,
      "Ġsigns": 7181,
      "ĠdÃ©": 7182,
      "´ëĿ¼": 7183,
      "];": 7184,
      "Ġremember": 7185,
      "Valid": 7186,
      "ĠSociety": 7187,
      "Ġinnov": 7188,
      "èµ": 7189,
      "Ġlayer": 7190,
      "Ġcro": 7191,
      "ãĥ¼ãĥ": 7192,
      "Ġgave": 7193,
      "Ġarriv": 7194,
      "ĠíĶĮëŀ«íı¼": 7195,
      "URL": 7196,
      "abs": 7197,
      "ĠHouse": 7198,
      "Ð·Ð°": 7199,
      "Ġpick": 7200,
      "ìĽĢìĿĦ": 7201,
      "Ġefficient": 7202,
      "Ġ(*": 7203,
      "ĠngÆ°á»Ŀi": 7204,
      "></": 7205,
      "71": 7206,
      "Ġsav": 7207,
      "Ġstorage": 7208,
      "vo": 7209,
      "(_": 7210,
      "Ġillness": 7211,
      "ĠPal": 7212,
      "Ġbran": 7213,
      "ëĭ¤ê³ł": 7214,
      "can": 7215,
      "ĠSince": 7216,
      "Ġbalance": 7217,
      "Ġincreases": 7218,
      "ê²łìĬµëĭĪëĭ¤": 7219,
      "Î¯Î½Î±Î¹": 7220,
      "${": 7221,
      "ĠÏĥÏĦÎ¿": 7222,
      "ë¯Ģë¡ľ": 7223,
      "ĠÐ²Ñĭ": 7224,
      "Ġbra": 7225,
      "Ġperhaps": 7226,
      "ĠConf": 7227,
      "Ġê¸°íļĮ": 7228,
      "Ġê²ĥìĿ´ëĭ¤": 7229,
      "Ġtopic": 7230,
      "Ġchurch": 7231,
      "ĠAlso": 7232,
      "PE": 7233,
      "lik": 7234,
      "Ġcand": 7235,
      "ê²¨": 7236,
      "(w": 7237,
      "igger": 7238,
      "Ġteach": 7239,
      "ì¸µ": 7240,
      "ĠRoman": 7241,
      "ÙĩÙħ": 7242,
      "yles": 7243,
      "æİ": 7244,
      "exp": 7245,
      "agy": 7246,
      "Ġchallenges": 7247,
      "ructure": 7248,
      "ĠAustralia": 7249,
      "Ġcompre": 7250,
      "ĠDuring": 7251,
      "ĵ¤": 7252,
      "ÑĢÑĭ": 7253,
      "params": 7254,
      "ĠWater": 7255,
      "Ġstrugg": 7256,
      "Ġcore": 7257,
      "DC": 7258,
      "Ġnutri": 7259,
      "Do": 7260,
      "Off": 7261,
      "rd": 7262,
      "Ġreports": 7263,
      "ÑģÐºÐ¸": 7264,
      "Header": 7265,
      "rep": 7266,
      "Â°": 7267,
      "Ġbank": 7268,
      "Ġatmosp": 7269,
      "Ġcities": 7270,
      "ĠFound": 7271,
      "pective": 7272,
      "Ä±l": 7273,
      "Ġevolution": 7274,
      "Ġgene": 7275,
      "Ġmoving": 7276,
      "Ġassum": 7277,
      ".k": 7278,
      "Ġrelev": 7279,
      "/or": 7280,
      ".J": 7281,
      "ĠëıĦìĽĢìĿ´": 7282,
      "Ġfemale": 7283,
      "Ġstaff": 7284,
      "ilit": 7285,
      "Ġdoc": 7286,
      "Ġstories": 7287,
      "ĠEnvironment": 7288,
      "Ġarchitect": 7289,
      "ĠSpec": 7290,
      "Ġworth": 7291,
      "ĠFrance": 7292,
      "amente": 7293,
      "romise": 7294,
      "ÃŃm": 7295,
      "elle": 7296,
      "rew": 7297,
      "ĠÐĴ": 7298,
      "exports": 7299,
      "Ġmission": 7300,
      "Ġê³µìľł": 7301,
      "Ġpiece": 7302,
      "ĠUK": 7303,
      "ĠìĹŃíķł": 7304,
      "íİĺ": 7305,
      "ategories": 7306,
      "field": 7307,
      "Ġrelatively": 7308,
      "Each": 7309,
      "works": 7310,
      "xe": 7311,
      "iful": 7312,
      "Ġappears": 7313,
      "Check": 7314,
      "Select": 7315,
      "ì¼Ģ": 7316,
      "current": 7317,
      "ä»ĸ": 7318,
      "Ġboard": 7319,
      "nam": 7320,
      "IF": 7321,
      "Ġoffers": 7322,
      "Ġpeace": 7323,
      "ris": 7324,
      "Met": 7325,
      "Ġdescription": 7326,
      "Ġobserved": 7327,
      "ëĥ": 7328,
      "gest": 7329,
      "lock": 7330,
      "ĠÏĢÏģÎ¿": 7331,
      "ÏģÏĮ": 7332,
      "Ġextends": 7333,
      "Ġmess": 7334,
      "Ġguide": 7335,
      "Ġerrors": 7336,
      "Ġwatch": 7337,
      "Ġpp": 7338,
      "xd": 7339,
      "Ġpresident": 7340,
      "ê¸°ìĹĲ": 7341,
      "ĠInternet": 7342,
      "íĸĪìĬµëĭĪëĭ¤": 7343,
      "anged": 7344,
      "Ġsac": 7345,
      "Ġqui": 7346,
      "Ġì§Īë¬¸": 7347,
      "olved": 7348,
      "och": 7349,
      "ĠPhil": 7350,
      "unn": 7351,
      "ĠìĹ´": 7352,
      "-B": 7353,
      "rum": 7354,
      "Ġforeign": 7355,
      "Ġmouth": 7356,
      "ĠìĭľìĬ¤íħľ": 7357,
      "Ġcollabor": 7358,
      "ÙĦÛĮ": 7359,
      "Ġ},": 7360,
      "Ab": 7361,
      "éĹ": 7362,
      "255": 7363,
      "wards": 7364,
      "Ġìķł": 7365,
      "ê¸°ëĬĶ": 7366,
      "eger": 7367,
      "house": 7368,
      "Ġê³Ħíļį": 7369,
      "Ġgeneration": 7370,
      "Ġtissue": 7371,
      "Ġê¸Īìľµ": 7372,
      "Def": 7373,
      "UM": 7374,
      "ĠBecause": 7375,
      "ĠØ·": 7376,
      "Ġë³´íĺ¸": 7377,
      ".ĊĊ": 7378,
      "uns": 7379,
      "Ġupdate": 7380,
      "ĠëĤĺíĥĢ": 7381,
      "(*": 7382,
      "Ġfindings": 7383,
      "iler": 7384,
      "Ġfresh": 7385,
      "ĠÏĨ": 7386,
      "ĵ°": 7387,
      "ë©Ķ": 7388,
      "Æ°á»Ľ": 7389,
      "eles": 7390,
      "ped": 7391,
      "Ġworked": 7392,
      "ĠPeople": 7393,
      "Ġsed": 7394,
      "rition": 7395,
      "ĠBer": 7396,
      "à¸": 7397,
      "kg": 7398,
      "íĿ¬": 7399,
      "è¦ģ": 7400,
      "Ġíķ´ê²°": 7401,
      "perties": 7402,
      "Ø§ØŃ": 7403,
      "Version": 7404,
      "Ġpicture": 7405,
      "ĠÙħØ¹": 7406,
      "æ²": 7407,
      "Ġbottom": 7408,
      "Ġeducational": 7409,
      "ocket": 7410,
      "Ġ};Ċ": 7411,
      "mal": 7412,
      "ĠÑĩÑĤÐ¾": 7413,
      "Ġexperim": 7414,
      "Ġball": 7415,
      "ĠAssociation": 7416,
      "Ġopportunities": 7417,
      "Ġera": 7418,
      "Ġrepro": 7419,
      "Create": 7420,
      "({Ċ": 7421,
      "Page": 7422,
      "ë§ģ": 7423,
      "æĹ¶": 7424,
      "Ġdari": 7425,
      "Ġpas": 7426,
      "Ġhandle": 7427,
      "Ġsig": 7428,
      "uses": 7429,
      "Ġdistribution": 7430,
      "Ġsurvey": 7431,
      "ĠOver": 7432,
      "igure": 7433,
      "_w": 7434,
      "mary": 7435,
      "chema": 7436,
      "-C": 7437,
      "íĺĳ": 7438,
      "ãģķ": 7439,
      "ĠDavid": 7440,
      ".class": 7441,
      "ĠÃ¼": 7442,
      "That": 7443,
      "ĠMich": 7444,
      "Ġelim": 7445,
      "quals": 7446,
      "Ġë°©ìĭĿ": 7447,
      "adi": 7448,
      "rics": 7449,
      ".G": 7450,
      "Ø¨Ø±": 7451,
      "Ġspect": 7452,
      "è¨": 7453,
      "æľ¬": 7454,
      "Ġalcohol": 7455,
      "stract": 7456,
      "Ġregions": 7457,
      "ĠíļĮìĤ¬": 7458,
      "ĠSocial": 7459,
      "Ġgod": 7460,
      "ĠÏĦÎ±": 7461,
      "criptor": 7462,
      "ona": 7463,
      "Ġzu": 7464,
      "Ġconsumption": 7465,
      "pha": 7466,
      "Ġrelease": 7467,
      "PT": 7468,
      "ÏĥÎµÎ¹": 7469,
      "Ġreturns": 7470,
      "ego": 7471,
      "ĠÎ±Î½": 7472,
      "hent": 7473,
      "Ġë²Ħ": 7474,
      "ĠìĿ¸íĦ°": 7475,
      "yg": 7476,
      "has": 7477,
      "ÏĥÎµ": 7478,
      "ĠìĬ¬": 7479,
      "Ġgiving": 7480,
      "tx": 7481,
      ",c": 7482,
      "').": 7483,
      "Prov": 7484,
      "Ġcommercial": 7485,
      "Ġfigure": 7486,
      "ping": 7487,
      "_path": 7488,
      "Ġconv": 7489,
      "Ġexpression": 7490,
      "eft": 7491,
      ":[": 7492,
      "Ġstrategies": 7493,
      "Ġriver": 7494,
      "Ġsignificantly": 7495,
      "anish": 7496,
      "CR": 7497,
      "ĠID": 7498,
      "Ð½Ð¾Ð¹": 7499,
      "Ġba": 7500,
      "NS": 7501,
      "Ġplanning": 7502,
      "semb": 7503,
      "////////////////": 7504,
      "Î¼ÎŃ": 7505,
      "Ġcert": 7506,
      ".__": 7507,
      "Ġì°¸ìĹ¬": 7508,
      "ĠëıĮ": 7509,
      "Ġjournal": 7510,
      "84": 7511,
      "Ġ[Ċ": 7512,
      "Ġwait": 7513,
      "urity": 7514,
      "ĠÏĥÏĦÎ·": 7515,
      "cular": 7516,
      "aa": 7517,
      "Ġtal": 7518,
      "ĠGermany": 7519,
      "ìŀĪ": 7520,
      "Ġdivid": 7521,
      "ĠTHE": 7522,
      "86": 7523,
      "Ġclinical": 7524,
      "ĠìĦ±ê³µ": 7525,
      "omitempty": 7526,
      "Ġcomment": 7527,
      "Ġple": 7528,
      "Module": 7529,
      "Ġvolume": 7530,
      "ĠClass": 7531,
      "height": 7532,
      "Ġsetting": 7533,
      "Ġplans": 7534,
      "Ġfert": 7535,
      "pa": 7536,
      "sz": 7537,
      "ĠRem": 7538,
      "ĠJewish": 7539,
      "ographic": 7540,
      "íĮĮíĬ¸": 7541,
      "ĠProject": 7542,
      "Ġencourag": 7543,
      "aker": 7544,
      "imer": 7545,
      "start": 7546,
      "ì³": 7547,
      "Ġincome": 7548,
      "(&": 7549,
      "Ġthousands": 7550,
      "ront": 7551,
      "ĠVer": 7552,
      "ĠVir": 7553,
      "Ġë§¤ìļ°": 7554,
      "Ġì§Ģê¸Ī": 7555,
      "that": 7556,
      "oute": 7557,
      "Ġíĺľ": 7558,
      "ìĥģìĿĦ": 7559,
      "ĠOff": 7560,
      "600": 7561,
      "´ë¦": 7562,
      "asion": 7563,
      "ĠWilliam": 7564,
      "Ġvision": 7565,
      "Ġresistance": 7566,
      "uan": 7567,
      "Ġist": 7568,
      "ĠWork": 7569,
      "ĠEach": 7570,
      "antic": 7571,
      "Ġoffice": 7572,
      "ressed": 7573,
      "ĠëĦĺ": 7574,
      "Ġobj": 7575,
      "cel": 7576,
      "sec": 7577,
      "ÏĦÎ®": 7578,
      "Ġunivers": 7579,
      "Ġtransl": 7580,
      "Ġrecords": 7581,
      "Params": 7582,
      "Su": 7583,
      "íİĺìĿ´": 7584,
      "Line": 7585,
      "Ġiron": 7586,
      "Ġsel": 7587,
      "ymbol": 7588,
      "ĠìĿ´ë²Ī": 7589,
      "Ġstatement": 7590,
      "*/": 7591,
      "Ġexperiment": 7592,
      "áº·": 7593,
      "ĠëĨĴìĿĢ": 7594,
      "Ġrandom": 7595,
      "apers": 7596,
      "Base": 7597,
      "Default": 7598,
      "Ġoperations": 7599,
      "ÙĦÙħ": 7600,
      "nic": 7601,
      "Ġë²łíĮħ": 7602,
      "Ġmath": 7603,
      "EB": 7604,
      "ĠÎµÎ¯Î½Î±Î¹": 7605,
      "Ġbatter": 7606,
      "Ġseed": 7607,
      "inciples": 7608,
      "æĪĳ": 7609,
      "Ġbreast": 7610,
      "Ġexhib": 7611,
      "ĠMor": 7612,
      "ìŀĲëĬĶ": 7613,
      "rat": 7614,
      "oom": 7615,
      ",omitempty": 7616,
      "Ġhappen": 7617,
      "ĠìĬ¹": 7618,
      "ĠKe": 7619,
      "81": 7620,
      "Ø¯Ùĩ": 7621,
      "Î¼Îµ": 7622,
      "Ġarm": 7623,
      "Ġsuggests": 7624,
      "Ġrequirements": 7625,
      "icial": 7626,
      "Ġtechnologies": 7627,
      "ifically": 7628,
      "ĠÃ¨": 7629,
      "Ġseparate": 7630,
      "Ġreplace": 7631,
      "ãģı": 7632,
      "ĠAD": 7633,
      "Ġê¿Ī": 7634,
      "åı¯": 7635,
      "æµ": 7636,
      "ĠíĺĦìŀ¬": 7637,
      "Ġvolt": 7638,
      "Ġletter": 7639,
      "Ġëĸ": 7640,
      "ĉĠĠ": 7641,
      "ccount": 7642,
      "ì¡Į": 7643,
      "ensions": 7644,
      "ĠÏĥÎµ": 7645,
      "Ġliqu": 7646,
      "porary": 7647,
      "ÙĤØ¯": 7648,
      "á»¯ng": 7649,
      "ĠType": 7650,
      "Ġexplore": 7651,
      "Ġinstall": 7652,
      "ìŀĲìĿ¸": 7653,
      "Ġclasses": 7654,
      "Ġtreated": 7655,
      "ëĶĶìĸ´": 7656,
      "Ġhighest": 7657,
      "Ġchance": 7658,
      "++)": 7659,
      "Load": 7660,
      "Ġì¦Ŀê°Ģ": 7661,
      "ĠìĿ´ë¯¸": 7662,
      "ÙĦÙĥ": 7663,
      "Ġurban": 7664,
      "(data": 7665,
      "ìĹ¼": 7666,
      "Ġcomo": 7667,
      "Ġcitizens": 7668,
      "Ġorganizations": 7669,
      "})Ċ": 7670,
      "ander": 7671,
      "ena": 7672,
      "Ġclick": 7673,
      "Ø±Ø¨": 7674,
      "ĠØ§ÙĦØŃ": 7675,
      "Ġexperiences": 7676,
      "áº§n": 7677,
      "Ġstructures": 7678,
      "acing": 7679,
      "connect": 7680,
      "Ġmale": 7681,
      "/*": 7682,
      "Ġded": 7683,
      "Ġhat": 7684,
      "Ġpresented": 7685,
      "mat": 7686,
      "Block": 7687,
      "ĠFebruary": 7688,
      "Ġinsect": 7689,
      "Ġ['": 7690,
      "ÙĪØ§ÙĨ": 7691,
      "ÑģÐ¸": 7692,
      "Ġq": 7693,
      "ĠìĦ¤ëªħ": 7694,
      "Ġimmediately": 7695,
      "ÏĦÏĮ": 7696,
      ",s": 7697,
      "96": 7698,
      "Address": 7699,
      "Ġdescribe": 7700,
      "ago": 7701,
      "Ġindustrial": 7702,
      "åľ°": 7703,
      "ĠOb": 7704,
      "ĠLord": 7705,
      "Ġgoals": 7706,
      "Ġini": 7707,
      "Ġcarried": 7708,
      "Ġcelebr": 7709,
      "Click": 7710,
      "Ġê´Ģê³Ħ": 7711,
      "Ġexcess": 7712,
      "Ġnovel": 7713,
      "Ġì²«": 7714,
      "rend": 7715,
      "Ġpartn": 7716,
      ".)Ċ": 7717,
      "ĠÐ¿ÑĢÐ¾": 7718,
      "ĠTheir": 7719,
      "wide": 7720,
      "Ġmi": 7721,
      ".size": 7722,
      "anda": 7723,
      "ĠìĤ¼": 7724,
      "CP": 7725,
      "Ġplastic": 7726,
      "obj": 7727,
      "Ġcs": 7728,
      "åĪĨ": 7729,
      "ĠJames": 7730,
      "Ġìĺģíĸ¥ìĿĦ": 7731,
      "Ass": 7732,
      "ĠSy": 7733,
      "Ġserve": 7734,
      "Ġmort": 7735,
      "ĠëĤł": 7736,
      "ĠGoogle": 7737,
      "Ġclassroom": 7738,
      "Ġintellig": 7739,
      "SD": 7740,
      "\";": 7741,
      "ATE": 7742,
      "Ġìĭ¶": 7743,
      "xiety": 7744,
      "Ġphen": 7745,
      "ĠìĹĨëĬĶ": 7746,
      "Ġê¼": 7747,
      "Ext": 7748,
      "Ġsurpr": 7749,
      "Ġmuscle": 7750,
      "ëĭ¤ë©´": 7751,
      "ĠíĤ": 7752,
      "Te": 7753,
      "Ġhair": 7754,
      "Ġstrict": 7755,
      "raint": 7756,
      "ĠÏĢÎ±": 7757,
      "ĉi": 7758,
      "Ġcounter": 7759,
      "Ġê°ĢìĿ´ëĵľ": 7760,
      "ĠÄĳÃ£": 7761,
      "ĠPlan": 7762,
      "800": 7763,
      "oi": 7764,
      "ĠÐ¸Ð·": 7765,
      "mm": 7766,
      "conds": 7767,
      "ĠíĺľíĥĿ": 7768,
      "Ġbelieved": 7769,
      "Ġmilk": 7770,
      "ëħĢ": 7771,
      "Command": 7772,
      "xygen": 7773,
      "ĠMal": 7774,
      "Ġtruth": 7775,
      "Ġseven": 7776,
      "ĠCongress": 7777,
      "aciÃ³n": 7778,
      "Ġdivers": 7779,
      "Ġsexual": 7780,
      "Ġdecades": 7781,
      "Ġbreath": 7782,
      "ë¡ľê·¸": 7783,
      "æĮ": 7784,
      "Ġpriv": 7785,
      "nek": 7786,
      "true": 7787,
      "Ġcas": 7788,
      "ais": 7789,
      "Ġextremely": 7790,
      "ĠìłĦì²´": 7791,
      "Ġleaders": 7792,
      "çĲ": 7793,
      "Ġdisorder": 7794,
      "Ã¤n": 7795,
      "Column": 7796,
      "Ġlegis": 7797,
      "Ġë§İìĿ´": 7798,
      "Ġupper": 7799,
      "Ġìłķì±ħ": 7800,
      "alah": 7801,
      "ĠíİĺìĿ´": 7802,
      "Ġstream": 7803,
      "Ġconnected": 7804,
      "Ð½ÑĭÑħ": 7805,
      "ĠìŀĲìĭłìĿĺ": 7806,
      ".ap": 7807,
      "ëıĦë¥¼": 7808,
      "Ġgarden": 7809,
      "Ġëħ¼": 7810,
      "æĦ": 7811,
      "Ġë°Ŀ": 7812,
      "msg": 7813,
      "ĠLet": 7814,
      "Ġcolle": 7815,
      "Å±": 7816,
      "Ġvert": 7817,
      "Ġfailure": 7818,
      "isf": 7819,
      "Ġopin": 7820,
      "Ġcycle": 7821,
      "íķĻêµĲ": 7822,
      "Ġvot": 7823,
      "Ġmulti": 7824,
      "aria": 7825,
      "Ġhuge": 7826,
      "ëĤĺìļĶ": 7827,
      "Ġou": 7828,
      "Ġbone": 7829,
      "ĠEgypt": 7830,
      "Ġprepar": 7831,
      "Ġeventually": 7832,
      "Ð¾ÑĤ": 7833,
      "Ã©e": 7834,
      "cia": 7835,
      "Ġgets": 7836,
      "ìĬ¤ë¥¼": 7837,
      "ãĤ¤": 7838,
      "Ġpref": 7839,
      "Ġflex": 7840,
      "CL": 7841,
      "req": 7842,
      "(String": 7843,
      "ĠÐ¡": 7844,
      "ì£ł": 7845,
      "ëĦĲ": 7846,
      "ola": 7847,
      "Ġglass": 7848,
      "Oper": 7849,
      "(g": 7850,
      "Ġremoved": 7851,
      "Ġíķ´ëĭ¹": 7852,
      "Ġconducted": 7853,
      "tee": 7854,
      "ycl": 7855,
      "Ġcontrast": 7856,
      "Ġstarting": 7857,
      "-up": 7858,
      "root": 7859,
      "eding": 7860,
      "Ġadapt": 7861,
      "isher": 7862,
      "Ã©k": 7863,
      "Ġlearned": 7864,
      "Ġconfirm": 7865,
      "ĠMary": 7866,
      "íĨ": 7867,
      "Ġchallenge": 7868,
      "ë¸Ķ": 7869,
      "Ob": 7870,
      "Exp": 7871,
      "Ġprefer": 7872,
      "=r": 7873,
      "Ġrepl": 7874,
      "Ġak": 7875,
      "Ġeasier": 7876,
      "Ġdin": 7877,
      "®¤": 7878,
      "elines": 7879,
      "ìķĻ": 7880,
      "Ġheavy": 7881,
      "Width": 7882,
      "ë¨¸": 7883,
      "ĠWestern": 7884,
      "ĠThus": 7885,
      "ì°½": 7886,
      "Ġë³ĳ": 7887,
      "Ġêµ¬ë§¤": 7888,
      "db": 7889,
      "igt": 7890,
      "ĠìĤ°ìĹħ": 7891,
      "Ġê¸°ì¤Ģ": 7892,
      "Ġemphas": 7893,
      "env": 7894,
      "Ġdepression": 7895,
      "Ġargument": 7896,
      "TH": 7897,
      "vas": 7898,
      "ASA": 7899,
      "Ġselected": 7900,
      "Ã´i": 7901,
      "anted": 7902,
      "iring": 7903,
      "ĠCollege": 7904,
      "Ġreality": 7905,
      "Ġproto": 7906,
      ".call": 7907,
      "Ġperformed": 7908,
      "Ġmedicine": 7909,
      "atural": 7910,
      "èĥ½": 7911,
      "berg": 7912,
      "Ġparty": 7913,
      "á»¥": 7914,
      "They": 7915,
      "Ġmetal": 7916,
      "Ġmes": 7917,
      "ologist": 7918,
      "Ġê³³": 7919,
      "ĠOut": 7920,
      "Ġhorm": 7921,
      "ulf": 7922,
      "ª½": 7923,
      "Ġfilter": 7924,
      "ĠPaul": 7925,
      "PR": 7926,
      "last": 7927,
      "ä¾": 7928,
      "ĠGreen": 7929,
      "Ġsolid": 7930,
      "Ġ'./": 7931,
      "ĠØ§ÙĨ": 7932,
      "ìĤ¬íķŃ": 7933,
      "ëŀľëĵľ": 7934,
      "ĠMedic": 7935,
      "Ġready": 7936,
      "Ġdalam": 7937,
      "ĠEv": 7938,
      "Ġadult": 7939,
      "-re": 7940,
      "ĠBel": 7941,
      "anguages": 7942,
      "ëĲĺê³ł": 7943,
      "Change": 7944,
      "udd": 7945,
      "google": 7946,
      "Ġnotes": 7947,
      "ĠÏħ": 7948,
      "QL": 7949,
      "82": 7950,
      "ĠRights": 7951,
      "ĠØ§ÙĦØ³": 7952,
      "../../": 7953,
      "Ġtrust": 7954,
      "body": 7955,
      "Ġvitamin": 7956,
      "_h": 7957,
      "ì²ł": 7958,
      "Ġreturned": 7959,
      "ĠDem": 7960,
      "Ġcourt": 7961,
      "Ġspeech": 7962,
      "ì»¤": 7963,
      "åĪ°": 7964,
      "Ġplatform": 7965,
      "Ġvary": 7966,
      "Part": 7967,
      "Ã³l": 7968,
      "Ġplease": 7969,
      "Ġcorrespon": 7970,
      "nergy": 7971,
      "};Ċ": 7972,
      "iders": 7973,
      "ĠOrgan": 7974,
      "Ġìĥģíĥľ": 7975,
      "icks": 7976,
      "Ġcoord": 7977,
      "ĠHel": 7978,
      "Ġê¸°ìŀĲ": 7979,
      "Ġisol": 7980,
      "Ġhun": 7981,
      "assword": 7982,
      "Ġvá»Ľi": 7983,
      "Ġfaith": 7984,
      "oj": 7985,
      "\"\"": 7986,
      "Ġê°ľìĦł": 7987,
      "Ġpopulations": 7988,
      "ìĭŃ": 7989,
      "97": 7990,
      "older": 7991,
      "(S": 7992,
      "IA": 7993,
      "ï¿": 7994,
      "Ġdecisions": 7995,
      ".String": 7996,
      "ÙĨØ§": 7997,
      "Î¹Î¿": 7998,
      "ĠÃ¡": 7999,
      "ìĿ¸ê°Ģ": 8000,
      "parent": 8001,
      "æĪĲ": 8002,
      "aur": 8003,
      "inder": 8004,
      "¿Ĳ": 8005,
      "Ġdoct": 8006,
      "Ġfort": 8007,
      "ums": 8008,
      "Url": 8009,
      "mitted": 8010,
      "Ġsupported": 8011,
      "Ġrow": 8012,
      "Ġliterature": 8013,
      "Ġround": 8014,
      "Ġrecommended": 8015,
      "eries": 8016,
      "care": 8017,
      "ollow": 8018,
      "Ġaspects": 8019,
      "Ð½Ðµ": 8020,
      "testing": 8021,
      "Ġdoor": 8022,
      "ategy": 8023,
      "Ġelectricity": 8024,
      "Ġíķĺê³ł": 8025,
      "Ġurl": 8026,
      "ĉĠĠĠ": 8027,
      "Ġê±¸": 8028,
      "ë²Īíĺ¸": 8029,
      "ĠÎ»": 8030,
      "urance": 8031,
      "othes": 8032,
      "Ġslight": 8033,
      "Ġnuclear": 8034,
      "Ġestimated": 8035,
      "Ġassessment": 8036,
      "Ġkid": 8037,
      "ĠìŀĪìľ¼": 8038,
      "cipl": 8039,
      "Ø¦": 8040,
      "ì²ĺëŁ¼": 8041,
      "orith": 8042,
      "olor": 8043,
      "Ġtradition": 8044,
      "Ġapproximately": 8045,
      "ľ´": 8046,
      "Ġmoved": 8047,
      "Ġdra": 8048,
      "SA": 8049,
      "aren": 8050,
      "Ã¡v": 8051,
      "ĠÏĦÏīÎ½": 8052,
      "Ġsolutions": 8053,
      "egin": 8054,
      "Ġradio": 8055,
      "Ġindependent": 8056,
      "zn": 8057,
      "Ġintroduced": 8058,
      "Ġminor": 8059,
      "æ¯": 8060,
      "Ġalternative": 8061,
      "ĠØ¥ÙĦÙī": 8062,
      "Ġviolence": 8063,
      "Ġreleased": 8064,
      "ĠÐŁ": 8065,
      "è¾": 8066,
      "acts": 8067,
      "Ġbodies": 8068,
      "Ġcombination": 8069,
      "(var": 8070,
      "Ġpolicies": 8071,
      "Ġpric": 8072,
      "Î¬Î½": 8073,
      "æĭ": 8074,
      "Ġcreation": 8075,
      "inger": 8076,
      "vi": 8077,
      "Ġwidth": 8078,
      "ĠTw": 8079,
      "âĢĺ": 8080,
      "ìĭľíĤ¤": 8081,
      "comes": 8082,
      "Ġìĸ»": 8083,
      "VID": 8084,
      "interface": 8085,
      "ying": 8086,
      "æĸĩ": 8087,
      "Ġdrive": 8088,
      "Ġvul": 8089,
      "Ġtrend": 8090,
      "Ġbecoming": 8091,
      "rier": 8092,
      "ĠHuman": 8093,
      "Ġê¸°ìĤ¬": 8094,
      "ìĶ¨": 8095,
      "ignment": 8096,
      "Ġíıīê°Ģ": 8097,
      "Ġrend": 8098,
      "183": 8099,
      "250": 8100,
      "obuf": 8101,
      "87": 8102,
      "ĠBen": 8103,
      "Ä±ÅŁ": 8104,
      "Ġcharacteristics": 8105,
      "kip": 8106,
      "ĠJapanese": 8107,
      "ĠDevelopment": 8108,
      "uls": 8109,
      "aan": 8110,
      "amespace": 8111,
      "Ġconver": 8112,
      "iveness": 8113,
      "oved": 8114,
      "Ġparticipants": 8115,
      "Entity": 8116,
      "83": 8117,
      "static": 8118,
      "Ġ_,": 8119,
      "DB": 8120,
      "Å¼e": 8121,
      "Ġcontribut": 8122,
      "è´": 8123,
      "Ġsynt": 8124,
      "ÃŁ": 8125,
      "ophy": 8126,
      "Ġpal": 8127,
      "Ġsand": 8128,
      "Ġëĭ¨ìĪľ": 8129,
      "ìĦ±ê³¼": 8130,
      ".Context": 8131,
      "Ġëĵ±ë¡Ŀ": 8132,
      "Ġtemperatures": 8133,
      "âĢĿĊ": 8134,
      "ĠìķĦíĮĮíĬ¸": 8135,
      "size": 8136,
      "123": 8137,
      "Ġdatabase": 8138,
      "ä½ľ": 8139,
      "Ġwall": 8140,
      "Ġsect": 8141,
      "Gl": 8142,
      "Ġfamous": 8143,
      "enth": 8144,
      "Ġchanging": 8145,
      "Ġwin": 8146,
      "ï¿½": 8147,
      "ĠÎĳ": 8148,
      "Ġflood": 8149,
      "Ġdoub": 8150,
      "(int": 8151,
      "Ġwel": 8152,
      "Ãµ": 8153,
      "ribe": 8154,
      "=a": 8155,
      "Ġinte": 8156,
      "ĠSam": 8157,
      "ĠTrue": 8158,
      "æ³ķ": 8159,
      "\",{": 8160,
      "ëĭµ": 8161,
      "agram": 8162,
      "Ġsignal": 8163,
      "æĽ": 8164,
      "atically": 8165,
      "ensor": 8166,
      "rations": 8167,
      "ĠÙĩÙħ": 8168,
      "ugin": 8169,
      "Ġnor": 8170,
      "Ġpra": 8171,
      "Ġquery": 8172,
      "ĠìĿ´ìĸ´": 8173,
      "Ġze": 8174,
      "001": 8175,
      "ĠUnder": 8176,
      "ĠìŀĲìĦ¸": 8177,
      "Ġals": 8178,
      "Ġtrou": 8179,
      "ĠRober": 8180,
      "Ġattract": 8181,
      "Ġcollege": 8182,
      "Ġauthors": 8183,
      "èĩª": 8184,
      "ĠØĮ": 8185,
      "urally": 8186,
      "Ġdiscussion": 8187,
      "anging": 8188,
      "Ġì½ĺíħĲì¸ł": 8189,
      "IB": 8190,
      "=True": 8191,
      "Ġrisks": 8192,
      "Ġunits": 8193,
      "ÅĤa": 8194,
      "ëĤł": 8195,
      "=(": 8196,
      "OC": 8197,
      "Ġoxygen": 8198,
      "iling": 8199,
      "æĿ¥": 8200,
      "Ġfrequently": 8201,
      "Ġrelative": 8202,
      "Ġwanted": 8203,
      "iva": 8204,
      "Ġnotice": 8205,
      "\");": 8206,
      "Ġdram": 8207,
      "Length": 8208,
      "ĠChildren": 8209,
      "ĠFood": 8210,
      "amily": 8211,
      "Ġê°ĸ": 8212,
      "Ġadjust": 8213,
      "Ġprocessing": 8214,
      "/t": 8215,
      "Mode": 8216,
      "xa": 8217,
      "acters": 8218,
      "Ġkil": 8219,
      "Ġmotor": 8220,
      "iat": 8221,
      "ĠìłĦë¬¸ê°Ģ": 8222,
      "_R": 8223,
      "Ġmist": 8224,
      "etch": 8225,
      "Ġresulting": 8226,
      "igation": 8227,
      "Ä±k": 8228,
      "cope": 8229,
      "ĠëĪĪ": 8230,
      "ĠìķĬëĬĶ": 8231,
      "ĠìŀĲìĹ°": 8232,
      "Ġfailed": 8233,
      "Back": 8234,
      "Ġswitch": 8235,
      "Î¼Î¿": 8236,
      "iá»ģu": 8237,
      "ĠíĤ¤": 8238,
      "icated": 8239,
      "Ġdisorders": 8240,
      "ìĿ´ëĿ¼ê³ł": 8241,
      "Ġë°±": 8242,
      "Ġbuildings": 8243,
      "Ġorganic": 8244,
      "ĠCouncil": 8245,
      "ìĭľìķĦ": 8246,
      "ĠâĢŀ": 8247,
      "Ġìłķë¶Ģ": 8248,
      "anned": 8249,
      "Ġdefinition": 8250,
      "Ġdynam": 8251,
      "\"],": 8252,
      "Ġhomes": 8253,
      "Sp": 8254,
      "Ġì¤ĳêµŃ": 8255,
      "ĠForm": 8256,
      "Ø°Ø§": 8257,
      "Ġtum": 8258,
      "ools": 8259,
      "Ġtom": 8260,
      "uid": 8261,
      "ĠHome": 8262,
      "Ġsecret": 8263,
      "Ġentry": 8264,
      "Ã¡z": 8265,
      "ĠFore": 8266,
      "Ġkter": 8267,
      "Ġpel": 8268,
      "Ġnumerous": 8269,
      "Ġwidely": 8270,
      "Ġ});ĊĊ": 8271,
      "Ġchronic": 8272,
      "Ġuma": 8273,
      "OK": 8274,
      "Ġì¡°ê±´": 8275,
      "Ġexecut": 8276,
      "Ġë°©ë¬¸": 8277,
      "ÏīÏĤ": 8278,
      "ÐºÐ¾": 8279,
      "ĠMac": 8280,
      "93": 8281,
      "ede": 8282,
      "ĠØ¨Ø§ÙĦ": 8283,
      "Ġreducing": 8284,
      "Ġ/*": 8285,
      "Ġscen": 8286,
      "Ġtrain": 8287,
      "hetic": 8288,
      "íĬ¹": 8289,
      "íķĺë©´ìĦľ": 8290,
      "Many": 8291,
      "rot": 8292,
      "afe": 8293,
      "ĠìĽ¹": 8294,
      "rence": 8295,
      "dev": 8296,
      "ima": 8297,
      "ancing": 8298,
      "ãĥ«": 8299,
      "Ġlung": 8300,
      "Mat": 8301,
      "poses": 8302,
      "Ġì¶ķ": 8303,
      "apat": 8304,
      "ologists": 8305,
      "ĉerr": 8306,
      "aped": 8307,
      "Ġappend": 8308,
      "ëį¸": 8309,
      "Ġprofession": 8310,
      "Ġclearly": 8311,
      ".;": 8312,
      "Ġtut": 8313,
      "ĠMuseum": 8314,
      "sem": 8315,
      "ĠØ¢ÙĨ": 8316,
      "æĸ¹": 8317,
      "ĠTex": 8318,
      "Ġcausing": 8319,
      "Ġì£¼ìĿĺ": 8320,
      "author": 8321,
      "ANT": 8322,
      "aks": 8323,
      "Init": 8324,
      "ĠGeorge": 8325,
      "Ġexactly": 8326,
      "ÅĻÃŃ": 8327,
      "Ġcogn": 8328,
      "ĠProt": 8329,
      "Ġnhá»¯ng": 8330,
      "ĠHIV": 8331,
      "Comp": 8332,
      "Ġocean": 8333,
      "Ġê³µê°Ħ": 8334,
      "Î»Î¿": 8335,
      "ttp": 8336,
      "ĉlog": 8337,
      "Ġau": 8338,
      "Ġëĭ´": 8339,
      "ĠInc": 8340,
      "_L": 8341,
      "indows": 8342,
      "ĠMicro": 8343,
      "102": 8344,
      "Ġê²½íĹĺìĿĦ": 8345,
      "Ġtechnique": 8346,
      "ester": 8347,
      "Ġ\"\"\"": 8348,
      "Ġwhom": 8349,
      "Ġgenerate": 8350,
      "ĠsÃ¥": 8351,
      "Ġseb": 8352,
      "server": 8353,
      "ÑĪÐ¸": 8354,
      "ĠAtt": 8355,
      "iki": 8356,
      "ëħĲ": 8357,
      "ê¸°ê°Ģ": 8358,
      "Ġtu": 8359,
      "iliar": 8360,
      "Ġregarding": 8361,
      "Ġ.Ċ": 8362,
      "ìłķìłģìĿ¸": 8363,
      "Ġrace": 8364,
      "Ġê¸¸": 8365,
      "ìĹĲìĦľëıĦ": 8366,
      "ĠBas": 8367,
      "asure": 8368,
      "Ġvel": 8369,
      "Ġhit": 8370,
      "ĠëĨį": 8371,
      "keys": 8372,
      "osing": 8373,
      "ULL": 8374,
      "Ġdistinct": 8375,
      "di": 8376,
      "max": 8377,
      "ko": 8378,
      "Ġë¶ģ": 8379,
      "Ġì¡´": 8380,
      "Ġanyone": 8381,
      "Ġpros": 8382,
      "Ġtidak": 8383,
      "Ġrh": 8384,
      "Ġnoted": 8385,
      "Ġkilled": 8386,
      "Ġmotiv": 8387,
      "Ġrelationships": 8388,
      "91": 8389,
      "ÏģÎ¯": 8390,
      "Ġcovered": 8391,
      "Ġrelevant": 8392,
      "Ġfill": 8393,
      "ĠëĿ¼ìĿ´": 8394,
      "ÑģÑĤÐ¾": 8395,
      "Ġju": 8396,
      "ìį": 8397,
      "Ġio": 8398,
      "Ġza": 8399,
      "-D": 8400,
      "Ġìļ´ëıĻ": 8401,
      "æķ°": 8402,
      "Ã¡ch": 8403,
      "Ġmode": 8404,
      "ÙĪÛĮ": 8405,
      "Ġproperly": 8406,
      "ishing": 8407,
      "ĠTherefore": 8408,
      "ĠCON": 8409,
      "Ġìłķì¹ĺ": 8410,
      "Ġlived": 8411,
      "Ġhappens": 8412,
      "Ġ;": 8413,
      "Ġcast": 8414,
      "(o": 8415,
      "Ste": 8416,
      "ĠÄĲ": 8417,
      "False": 8418,
      "ĠZe": 8419,
      "Ġpages": 8420,
      "áº£i": 8421,
      "Ġcampaign": 8422,
      "Factory": 8423,
      "Ġinflamm": 8424,
      "Ġgames": 8425,
      "ÑĥÑİ": 8426,
      "ê·ł": 8427,
      "uts": 8428,
      "Ġtour": 8429,
      "-th": 8430,
      "Ġìĭ¤ìłľ": 8431,
      "pack": 8432,
      "Ġinterpret": 8433,
      "Ġgenes": 8434,
      "iform": 8435,
      "ĠWhy": 8436,
      "ĠMart": 8437,
      "Ġsoci": 8438,
      "ç«": 8439,
      "ĠDel": 8440,
      "Ð¾Ð¿": 8441,
      "Ġshared": 8442,
      "Ġhear": 8443,
      "ÑģÑĤÑĮ": 8444,
      "Ġturned": 8445,
      "ente": 8446,
      "ĠìľĦì¹ĺ": 8447,
      "Ġfine": 8448,
      "Ġwonder": 8449,
      "Ġphase": 8450,
      "Ġexperts": 8451,
      "Å¡ÃŃ": 8452,
      "íį¼": 8453,
      "gi": 8454,
      "Ġsamples": 8455,
      "Ġthick": 8456,
      "ĠRepublic": 8457,
      "Ġfinding": 8458,
      "orial": 8459,
      "-r": 8460,
      "Ġjed": 8461,
      "Ġdegrees": 8462,
      "Sl": 8463,
      "ÑĤÐµÐ»ÑĮ": 8464,
      "Ġmarg": 8465,
      "node": 8466,
      "iable": 8467,
      "Ġìĸ¼": 8468,
      "Ø¥": 8469,
      "ãĥĪ": 8470,
      "Pre": 8471,
      "íĦ¸": 8472,
      "Ġconflict": 8473,
      "ãģį": 8474,
      "ĠnhÆ°": 8475,
      "Ġannual": 8476,
      "Ġmeeting": 8477,
      "Î®ÏĤ": 8478,
      "ĠSen": 8479,
      "Case": 8480,
      "92": 8481,
      ".path": 8482,
      "ford": 8483,
      "Ġgender": 8484,
      "Ġdogs": 8485,
      "Ġê²Ģìĥī": 8486,
      "ORT": 8487,
      "Ġadvanced": 8488,
      "Ġgrand": 8489,
      "Ġeller": 8490,
      "ĠAnda": 8491,
      "ĠTra": 8492,
      "arrow": 8493,
      "ĠIT": 8494,
      "Ġbelong": 8495,
      "PC": 8496,
      "Ġinfections": 8497,
      "ĠGovernment": 8498,
      ".js": 8499,
      "ball": 8500,
      "ĠInf": 8501,
      "Ġinvolves": 8502,
      "Ġprincip": 8503,
      "ifying": 8504,
      "Ġstrategy": 8505,
      "Ġfreedom": 8506,
      "Ġë³´íĹĺ": 8507,
      "çĻ": 8508,
      "Ġlinked": 8509,
      "ervices": 8510,
      "çº": 8511,
      ".V": 8512,
      "ĠÎ±Ïħ": 8513,
      "Ġtag": 8514,
      "çľ": 8515,
      "osystem": 8516,
      ".find": 8517,
      "Ġscreen": 8518,
      "?\"": 8519,
      "ĠìĤ¶": 8520,
      "ç¾": 8521,
      "Ġfinally": 8522,
      "Ã¸r": 8523,
      "íĨµëł¹": 8524,
      "(),Ċ": 8525,
      "ĠëĴ": 8526,
      "ĠRich": 8527,
      "111": 8528,
      "Ġdiss": 8529,
      "Ġincorpor": 8530,
      ".default": 8531,
      "éĽ": 8532,
      "ĠDef": 8533,
      "Ġìµľê³ł": 8534,
      "ĠStre": 8535,
      "omin": 8536,
      "æĥ": 8537,
      "Box": 8538,
      "omic": 8539,
      "rive": 8540,
      "Ġê¸°ë³¸": 8541,
      "soft": 8542,
      "ĽĪ": 8543,
      "rie": 8544,
      "Ġvess": 8545,
      "Ġreligion": 8546,
      "_pro": 8547,
      "unately": 8548,
      "Ġcomprehens": 8549,
      "Ġconsole": 8550,
      "Null": 8551,
      "¿ł": 8552,
      "\\t": 8553,
      "Ø±Ùģ": 8554,
[...]
